<pad>	0
<unk>	0
<s>	0
</s>	0
<formal>	0
<informal>	0
,	-3.34241
▁	-3.36652
.	-3.43978
▁the	-3.56731
s	-3.63901
▁to	-4.02035
’	-4.1072
▁a	-4.16402
▁of	-4.30035
▁and	-4.37995
▁.	-4.46263
ing	-4.52274
—	-4.61746
▁in	-4.66919
)	-4.71753
▁that	-4.73827
▁is	-4.83255
ed	-4.86486
▁(@	-4.99437
▁”	-4.99573
▁for	-5.02873
:	-5.04938
▁2016	-5.05723
t	-5.10439
▁it	-5.18191
▁on	-5.20841
▁Trump	-5.26676
ly	-5.28599
”	-5.38633
▁be	-5.39482
n	-5.41607
▁with	-5.49213
▁was	-5.51402
d	-5.56048
▁I	-5.6465
▁he	-5.68215
▁The	-5.70568
▁are	-5.73093
▁this	-5.76218
▁as	-5.76477
▁not	-5.77265
▁his	-5.90516
▁have	-5.91304
▁has	-5.94098
▁at	-5.94857
▁about	-5.97794
e	-6.01963
▁@	-6.03443
▁you	-6.05065
▁from	-6.12706
▁her	-6.17895
▁who	-6.20222
▁#	-6.22546
▁an	-6.23294
g	-6.23738
▁by	-6.24474
▁they	-6.2635
.”	-6.28111
▁(	-6.28778
▁people	-6.29037
▁or	-6.3091
▁A	-6.33771
▁March	-6.34115
▁But	-6.38158
?	-6.38932
y	-6.39337
▁but	-6.39596
▁out	-6.43903
▁pic	-6.45848
▁all	-6.46065
▁twitter	-6.46355
▁we	-6.4699
▁more	-6.47941
▁January	-6.4856
▁will	-6.50077
▁like	-6.5051
re	-6.51419
▁would	-6.53191
▁Clinton	-6.55527
▁And	-6.55586
ir	-6.55618
▁up	-6.56019
▁said	-6.56301
▁she	-6.56746
▁im	-6.57188
▁can	-6.58227
▁http	-6.58864
▁what	-6.60466
▁just	-6.61058
▁one	-6.63819
▁been	-6.64816
▁It	-6.65266
▁when	-6.6832
▁than	-6.76641
Donald	-6.76675
▁get	-6.77092
▁over	-6.80747
▁had	-6.80917
▁did	-6.82922
▁which	-6.82983
▁do	-6.83556
a	-6.83987
▁campaign	-6.85078
▁me	-6.85813
▁were	-6.86286
er	-6.88275
▁no	-6.89024
al	-6.89427
▁In	-6.89971
▁also	-6.91542
▁Twitter	-6.91699
▁my	-6.91846
▁there	-6.91908
▁so	-6.9318
▁July	-6.93865
▁some	-6.94261
th	-6.95075
▁This	-6.95814
▁does	-6.96578
▁if	-6.96584
2	-6.98352
▁Sanders	-6.98713
▁other	-7.00608
▁because	-7.01362
▁even	-7.02262
▁August	-7.02395
▁20	-7.0323
▁S	-7.03647
▁how	-7.05106
▁h	-7.06411
r	-7.07572
▁should	-7.07687
▁He	-7.08733
▁only	-7.10155
▁see	-7.1066
▁know	-7.11093
▁them	-7.13084
▁time	-7.14299
▁could	-7.14571
▁him	-7.1604
ve	-7.16973
▁after	-7.17797
▁J	-7.23167
es	-7.23734
on	-7.24211
▁into	-7.24459
▁P	-7.258
!	-7.25875
▁back	-7.26894
▁4	-7.27052
m	-7.27526
▁make	-7.28078
▁debate	-7.28101
realDonaldTrump	-7.28387
▁way	-7.28639
▁un	-7.28706
▁C	-7.28763
before	-7.29145
▁your	-7.29501
▁Republican	-7.29622
▁any	-7.29993
▁Hillary	-7.30348
▁don	-7.30626
our	-7.31522
▁call	-7.32561
▁many	-7.33671
▁seem	-7.34268
▁want	-7.35651
▁say	-7.35922
▁think	-7.37096
▁most	-7.37161
▁supporters	-7.372
▁now	-7.37631
▁women	-7.38873
▁first	-7.38962
▁May	-7.39012
▁R	-7.40345
▁Obama	-7.40727
▁take	-7.40753
▁very	-7.4124
▁:	-7.42786
▁We	-7.42986
▁actual	-7.4326
▁look	-7.44678
▁go	-7.44807
o	-7.45606
▁New	-7.46364
▁t	-7.46832
▁off	-7.46895
▁its	-7.47059
▁You	-7.49469
▁media	-7.49526
▁show	-7.49926
▁against	-7.50579
▁That	-7.5065
▁B	-7.51332
or	-7.51924
I	-7.52655
▁&	-7.52861
in	-7.53409
the	-7.53653
▁talk	-7.53998
▁1	-7.54028
le	-7.55153
▁still	-7.57058
ld	-7.57389
;	-7.58204
▁going	-7.58208
st	-7.584
▁So	-7.58869
▁these	-7.59064
▁made	-7.59188
▁candidate	-7.59218
▁th	-7.59702
h	-7.61272
▁February	-7.61414
▁two	-7.61429
ity	-7.6169
▁lot	-7.61776
▁11	-7.62234
x	-7.6365
▁much	-7.63743
▁around	-7.63818
▁Cruz	-7.64031
ever	-7.6421
an	-7.64292
▁too	-7.6442
▁need	-7.65742
T	-7.65781
▁where	-7.66718
Bernie	-7.66859
▁new	-7.66862
▁T	-7.66974
▁G	-7.67532
▁something	-7.68673
ment	-7.68978
▁right	-7.69478
▁W	-7.70918
_	-7.7102
Douthat	-7.71021
▁president	-7.71048
▁good	-7.71179
▁Kelly	-7.71394
▁part	-7.71716
▁support	-7.7196
▁years	-7.72227
▁30	-7.72266
us	-7.72705
▁They	-7.72866
▁America	-7.73273
▁between	-7.73619
▁Murderer	-7.73679
▁down	-7.73761
l	-7.74223
called	-7.74225
▁She	-7.74243
▁2	-7.74262
Making	-7.74438
▁There	-7.75174
▁big	-7.75825
able	-7.75829
out	-7.76216
▁through	-7.76264
▁night	-7.76515
▁really	-7.76586
▁point	-7.77071
c	-7.77472
▁before	-7.77728
If	-7.78561
▁Kanye	-7.78948
ll	-7.78952
▁Schumer	-7.79067
▁re	-7.79099
▁M	-7.79367
▁News	-7.79738
▁while	-7.79941
▁day	-7.8005
▁American	-7.80126
▁As	-7.8024
p	-7.80762
▁internet	-7.81731
▁question	-7.81798
▁3	-7.8196
▁What	-7.82253
ic	-7.8234
▁statement	-7.82425
▁9	-7.83369
▁here	-7.83475
ting	-7.84482
▁major	-7.84581
▁speech	-7.84584
▁may	-7.8472
▁tweet	-7.84977
▁abortion	-7.85346
▁12	-7.8557
▁use	-7.86679
The	-7.874
▁2015	-7.87529
▁Fox	-7.8766
▁police	-7.87663
▁b	-7.88006
▁When	-7.88067
▁come	-7.88486
▁snow	-7.8866
▁On	-7.89717
▁s	-7.90256
▁last	-7.90601
▁political	-7.90683
5	-7.90767
▁Kasich	-7.9082
▁19	-7.90883
▁p	-7.92636
ther	-7.93306
▁candidates	-7.93577
▁September	-7.93679
▁might	-7.93702
▁why	-7.93737
▁help	-7.9385
▁US	-7.93914
▁F	-7.94025
▁E	-7.94302
▁Rubio	-7.9438
ce	-7.9606
▁public	-7.96861
MakingAMurderer	-7.96876
▁harassment	-7.96909
▁same	-7.96912
▁every	-7.96937
▁story	-7.96952
▁Fields	-7.96957
▁c	-7.97099
▁great	-7.97217
▁idea	-7.97601
▁8	-7.97612
▁problem	-7.98022
▁long	-8.00182
▁kind	-8.00214
▁percent	-8.00235
▁policy	-8.00241
ers	-8.00271
▁West	-8.00544
▁hard	-8.00736
▁state	-8.00914
▁5	-8.01249
▁For	-8.01428
ation	-8.02494
▁thing	-8.03104
ion	-8.03405
▁better	-8.037
▁past	-8.0372
▁start	-8.03746
▁storm	-8.03937
▁though	-8.0397
▁D	-8.04067
▁system	-8.0414
arance	-8.04428
▁bo	-8.0495
▁Some	-8.05046
▁..	-8.05359
▁then	-8.05775
▁real	-8.05929
all	-8.06342
▁himself	-8.07253
▁particular	-8.07254
▁country	-8.07255
Jason	-8.0733
▁someone	-8.07339
▁race	-8.07364
▁let	-8.07509
▁put	-8.0759
k	-8.07603
▁social	-8.07604
▁Here	-8.0785
▁says	-8.0811
▁us	-8.08196
▁reporter	-8.08696
▁world	-8.08876
▁saying	-8.09017
▁line	-8.09608
▁less	-8.0962
▁al	-8.10345
▁fact	-8.10414
▁already	-8.10933
▁least	-8.10944
▁response	-8.11061
▁another	-8.11124
▁13	-8.11143
▁life	-8.11172
▁voters	-8.1143
▁24	-8.11517
is	-8.11602
▁K	-8.11624
during	-8.11702
▁vote	-8.1182
▁end	-8.11825
▁Republicans	-8.12049
▁work	-8.1315
▁things	-8.13316
▁play	-8.1389
ose	-8.13998
▁far	-8.14314
▁different	-8.14333
▁research	-8.14742
▁York	-8.14778
▁again	-8.14816
▁own	-8.14961
▁election	-8.15092
and	-8.1535
▁well	-8.15561
ies	-8.16088
f	-8.1661
most	-8.16639
▁attack	-8.17109
▁man	-8.17115
▁name	-8.17748
i	-8.17771
▁tell	-8.18034
▁allow	-8.18172
▁news	-8.18349
▁Court	-8.18779
▁primary	-8.18785
▁few	-8.18879
▁since	-8.18965
▁under	-8.18981
w	-8.19241
▁press	-8.19291
O	-8.20405
▁used	-8.20811
▁case	-8.20814
S	-8.21162
▁tweets	-8.21856
▁poll	-8.21862
▁w	-8.22276
▁co	-8.22358
▁Ste	-8.22744
▁evidence	-8.22946
▁million	-8.22947
▁video	-8.22948
▁includ	-8.22959
▁Wiz	-8.23132
▁personal	-8.23579
▁17	-8.23618
▁asked	-8.2363
▁black	-8.23712
▁n	-8.23809
▁believe	-8.24585
▁Ben	-8.25282
NY	-8.26192
making	-8.26309
Circ	-8.26993
App	-8.2714
▁protest	-8.27287
▁April	-8.27293
▁enough	-8.27295
▁UK	-8.27301
▁movement	-8.27313
▁often	-8.27381
▁bad	-8.27423
▁18	-8.27493
▁pay	-8.27987
▁Or	-8.28552
▁mean	-8.29518
eals	-8.29574
▁group	-8.2959
▁de	-8.29704
▁nominee	-8.29731
▁place	-8.2995
▁try	-8.30123
▁fight	-8.30362
▁feel	-8.30944
E	-8.31471
▁How	-8.31511
▁Facebook	-8.31839
▁family	-8.31839
▁woman	-8.31842
▁29	-8.31863
▁event	-8.3201
▁having	-8.32011
▁Why	-8.32083
▁issue	-8.32158
▁watch	-8.32265
▁7	-8.3236
▁party	-8.32571
▁ever	-8.333
en	-8.33386
one	-8.33488
▁answer	-8.33585
▁joke	-8.33891
▁li	-8.342
▁year	-8.34387
▁change	-8.34678
▁win	-8.34994
▁Muslim	-8.35046
j	-8.35529
▁deal	-8.35733
always	-8.36173
▁side	-8.36262
▁understand	-8.36366
ist	-8.36386
▁wrote	-8.366
▁keep	-8.36601
▁convention	-8.36601
Harris	-8.36618
▁28	-8.36635
▁open	-8.3667
▁Ross	-8.36731
▁Christie	-8.36807
▁today	-8.36898
▁National	-8.37052
ful	-8.37162
▁Mike	-8.37275
▁Lewandowski	-8.37464
▁set	-8.37656
est	-8.37659
▁probab	-8.37837
▁President	-8.38345
▁ask	-8.38573
▁got	-8.38585
▁At	-8.386
ter	-8.38809
▁death	-8.39241
▁account	-8.39314
▁g	-8.39753
achel	-8.40263
▁days	-8.40392
▁questions	-8.40434
ry	-8.40684
C	-8.40828
ttle	-8.40962
▁clear	-8.41188
16,	-8.41193
▁large	-8.414
▁Florida	-8.41601
▁presidential	-8.41619
▁everyone	-8.41656
▁21	-8.41664
▁arm	-8.41688
▁recent	-8.41724
klar	-8.41761
▁happened	-8.41816
M	-8.42026
▁came	-8.42201
reme	-8.42259
▁away	-8.42266
▁started	-8.42632
▁To	-8.42665
it	-8.42871
▁6	-8.43065
▁toward	-8.43462
▁H	-8.43711
▁Sup	-8.44431
▁number	-8.44519
▁Democrat	-8.44625
▁whe	-8.44818
?”	-8.44927
▁run	-8.45036
▁cast	-8.45108
▁dis	-8.45389
▁L	-8.45625
at	-8.4585
▁cause	-8.46821
▁Stewart	-8.46863
▁Tuesday	-8.46864
▁incident	-8.46864
▁white	-8.46876
▁2012	-8.46903
▁27	-8.46907
▁become	-8.46968
▁reported	-8.47074
▁Post	-8.47178
▁Matt	-8.47189
▁care	-8.47618
▁national	-8.47844
cy	-8.47962
fter	-8.4811
▁taken	-8.48125
mong	-8.4828
taking	-8.48303
▁My	-8.48587
▁young	-8.4861
▁N	-8.48681
▁Democrats	-8.49376
▁offer	-8.49399
6,	-8.4984
each	-8.49871
▁10	-8.49952
▁game	-8.50141
▁V	-8.50542
▁26	-8.5059
▁m	-8.50846
D	-8.51504
▁appear	-8.51943
1	-8.52017
R	-8.52046
▁violence	-8.52419
▁Washington	-8.52419
▁government	-8.52422
▁June	-8.52422
▁give	-8.52423
▁else	-8.52426
▁2014	-8.52429
▁history	-8.52432
▁Jones	-8.52465
▁later	-8.52561
▁wall	-8.52633
▁inches	-8.52675
▁Matter	-8.52758
▁25	-8.52785
▁CNN	-8.52837
▁suggest	-8.52896
ok	-8.53053
▁base	-8.53276
▁whom	-8.5331
▁Amy	-8.53513
▁No	-8.53721
▁comments	-8.5406
▁tweeted	-8.54079
z	-8.54264
▁makes	-8.54313
▁best	-8.54433
▁GOP	-8.54488
▁means	-8.55184
▁attacks	-8.55446
▁likely	-8.55586
▁website	-8.56032
▁week	-8.562
▁matter	-8.56231
▁push	-8.56252
ent	-8.56374
▁meme	-8.56411
3	-8.56711
▁Americans	-8.5706
less	-8.57132
▁doing	-8.57512
▁O	-8.57811
▁Friday	-8.58301
▁Pokémon	-8.58301
▁potential	-8.58301
▁pretty	-8.58301
▁Iowa	-8.58305
▁Party	-8.58313
▁exact	-8.58314
▁moment	-8.58337
▁anything	-8.58356
▁former	-8.58419
▁left	-8.58448
▁money	-8.58546
▁City	-8.58695
▁John	-8.58793
▁release	-8.59196
▁law	-8.59349
as	-8.59812
▁...	-8.60157
▁Live	-8.60172
▁action	-8.60256
▁Mr	-8.60444
▁Black	-8.6047
▁certain	-8.60716
▁position	-8.6135
▁present	-8.61526
▁war	-8.61539
nt	-8.61544
▁close	-8.61609
▁Ro	-8.61673
▁Ted	-8.61952
▁power	-8.6209
▁live	-8.62167
P	-8.62239
▁reason	-8.6225
▁example	-8.62262
ance	-8.63457
ted	-8.63551
ily	-8.63713
ight	-8.64157
eign	-8.64211
▁23	-8.64391
Megyn	-8.64551
▁McBoatface	-8.64551
▁article	-8.64551
▁decision	-8.64551
▁Thursday	-8.64551
▁focus	-8.64552
▁Douglas	-8.64553
▁criticism	-8.64553
▁Swift	-8.64555
▁United	-8.64556
▁sense	-8.64567
▁Pence	-8.64574
Boaty	-8.64575
▁Ioffe	-8.64642
especially	-8.64671
▁turn	-8.64756
▁space	-8.64795
▁science	-8.64821
▁justice	-8.64834
▁free	-8.64874
▁stay	-8.64917
▁Kardashian	-8.65098
▁post	-8.65126
▁won	-8.65185
ally	-8.65467
Amber	-8.65561
▁current	-8.65983
▁15	-8.6601
hose	-8.66568
▁late	-8.67034
▁full	-8.67173
▁am	-8.67208
A	-8.67512
▁others	-8.68945
▁word	-8.69075
▁com	-8.69091
▁strong	-8.69175
▁conservative	-8.69192
▁sever	-8.69508
ary	-8.69753
▁ra	-8.69911
▁fire	-8.70286
▁U	-8.70552
▁endorse	-8.70603
▁stop	-8.70762
ive	-8.71005
▁Scarborough	-8.71218
▁Yiannopoulos	-8.71218
HillaryClinton	-8.71219
▁Bruenig	-8.71219
▁consider	-8.7122
▁EU	-8.71224
▁worse	-8.71226
▁simply	-8.71261
This	-8.71287
▁community	-8.71288
▁true	-8.71312
man	-8.71326
▁tough	-8.71479
▁Rose	-8.71635
Dallas	-8.71653
▁whole	-8.71831
▁series	-8.72011
▁pick	-8.73186
uch	-8.73617
▁i	-8.73815
ant	-8.74197
ty	-8.74874
▁f	-8.75065
b	-8.75513
up	-8.75534
se	-8.75982
▁racist	-8.76124
▁16	-8.76745
▁Mich	-8.76775
▁office	-8.7815
SFBART	-8.78361
▁Saturday	-8.78361
▁Wednesday	-8.78361
Calvin	-8.78361
▁conversation	-8.78362
▁effort	-8.78362
▁choose	-8.78363
▁behind	-8.78363
▁color	-8.78369
▁top	-8.78375
▁spoke	-8.78382
▁single	-8.78405
▁Avery	-8.78444
▁Pepe	-8.78459
▁home	-8.78472
▁course	-8.7853
▁hand	-8.786
▁Carson	-8.78637
▁David	-8.78646
▁v	-8.78678
▁fans	-8.78804
▁bring	-8.78865
▁His	-8.78891
▁users	-8.78918
▁With	-8.78947
Weather	-8.79003
▁States	-8.79317
▁city	-8.79494
▁respond	-8.79893
▁face	-8.80068
▁hours	-8.80143
errurier	-8.80484
▁Ryan	-8.80668
▁ban	-8.80951
▁hurt	-8.81231
We	-8.81705
▁issues	-8.81818
king	-8.81891
ors	-8.82021
Police	-8.82398
ch	-8.82622
v	-8.82981
It	-8.83309
▁plan	-8.83338
ure	-8.8337
▁Bill	-8.83469
▁air	-8.83755
▁comment	-8.83869
▁record	-8.8399
▁ma	-8.84272
▁move	-8.84335
▁points	-8.8464
▁include	-8.8505
▁rights	-8.85055
▁interest	-8.85316
ng	-8.85441
▁December	-8.86053
▁Jersey	-8.86053
▁Metzger	-8.86053
AskM	-8.86053
▁access	-8.86054
▁Scalia	-8.86054
▁level	-8.86055
▁Garland	-8.86057
▁Kaine	-8.86058
▁Senate	-8.86058
▁health	-8.86063
▁Vox	-8.86079
▁confirm	-8.86087
▁pre	-8.86097
▁Even	-8.86107
▁found	-8.86107
▁attention	-8.8614
ael	-8.86153
▁yet	-8.86166
▁feet	-8.86228
▁four	-8.86237
▁funding	-8.86337
▁Brutalist	-8.86352
▁Johnson	-8.86363
▁itself	-8.86369
▁Iran	-8.86388
▁Let	-8.86409
▁racial	-8.86436
▁low	-8.86446
▁politics	-8.86456
▁continued	-8.86554
ver	-8.86634
▁Breitbart	-8.86714
▁bit	-8.86736
▁remain	-8.8674
▁nothing	-8.86772
ave	-8.86804
▁personally	-8.86842
▁treat	-8.86864
▁speaking	-8.86889
te	-8.86893
▁ex	-8.87277
▁person	-8.87629
▁fall	-8.87722
▁One	-8.8785
▁thought	-8.87939
▁establishment	-8.88189
▁DC	-8.88217
▁high	-8.88296
▁Co	-8.8838
u	-8.89193
▁d	-8.89358
F	-8.89381
AM	-8.89488
▁hate	-8.89514
ness	-8.89909
*	-8.89973
▁runn	-8.90227
il	-8.90672
▁l	-8.90707
▁head	-8.91558
▁love	-8.91631
▁check	-8.92079
▁court	-8.92097
▁official	-8.921
8	-8.92152
sure	-8.92222
der	-8.92428
▁Ba	-8.92594
el	-8.92661
body	-8.927
▁hear	-8.92852
ized	-8.93179
▁Do	-8.93203
ne	-8.93283
me	-8.93384
▁Her	-8.93467
▁creat	-8.93514
▁speak	-8.93532
ake	-8.93602
▁agree	-8.93874
to	-8.93925
▁general	-8.9396
▁respect	-8.94068
▁effect	-8.9424
▁Baltimore	-8.94387
▁Beyoncé	-8.94387
▁behavior	-8.94387
▁language	-8.94387
▁relationship	-8.94387
▁feud	-8.94389
▁Justice	-8.9439
▁context	-8.9439
▁next	-8.94393
▁decide	-8.94394
Barack	-8.94407
▁followers	-8.9441
▁began	-8.94415
▁argument	-8.94432
▁protect	-8.94444
▁manager	-8.94452
▁Hand	-8.94558
▁building	-8.94589
▁thre	-8.94643
▁security	-8.94665
▁morning	-8.94709
once	-8.94729
▁music	-8.94865
▁order	-8.95107
▁died	-8.95277
4	-8.95321
▁NRA	-8.95483
▁TV	-8.95519
▁Now	-8.95548
ccord	-8.95672
▁liberals	-8.95715
▁writes	-8.95878
▁reports	-8.96379
▁pointed	-8.9669
▁mus	-8.97135
▁hit	-8.97223
▁Bro	-8.97519
▁find	-8.97521
ism	-8.97832
B	-8.97929
media	-8.98251
just	-8.98319
▁Muslims	-8.98512
You	-8.98555
).	-8.98869
▁Marc	-8.98901
▁area	-8.98903
.)	-8.99098
J	-8.9914
▁easi	-8.99319
key	-8.99342
▁argu	-8.99343
▁view	-8.99551
am	-9.00012
▁22	-9.00326
yone	-9.00556
▁team	-9.0098
▁choice	-9.01158
▁gun	-9.01273
▁ca	-9.01444
▁claim	-9.01494
▁host	-9.01519
▁song	-9.01603
▁hour	-9.01737
▁Joe	-9.01781
ST	-9.01858
▁site	-9.02376
ur	-9.02773
oth	-9.03309
▁force	-9.03319
▁serious	-9.03355
▁obvious	-9.03477
▁album	-9.03477
▁instead	-9.03477
▁significant	-9.03477
▁wrong	-9.03477
▁Bowie	-9.03478
▁Sunday	-9.03478
▁Bloys	-9.03479
▁Paul	-9.0348
▁economic	-9.03485
▁joking	-9.03486
▁quick	-9.03489
▁nomination	-9.03497
▁child	-9.03503
▁guy	-9.03504
▁ensure	-9.03529
▁company	-9.03531
▁class	-9.03535
▁along	-9.03542
▁catch	-9.03549
Julia	-9.03549
▁rally	-9.03582
▁shows	-9.03654
▁Times	-9.03694
▁direct	-9.03713
▁con	-9.03738
▁however	-9.03752
chan	-9.03785
▁alone	-9.03806
▁House	-9.0381
▁Texas	-9.0381
▁defense	-9.03813
▁ago	-9.03825
▁voting	-9.0383
▁director	-9.03865
ar	-9.03867
▁directly	-9.0392
▁leave	-9.0397
White	-9.04218
▁Terris	-9.04248
▁clearly	-9.0425
▁moderators	-9.04274
▁hope	-9.04287
▁Whi	-9.04327
▁total	-9.0436
▁popular	-9.04386
▁accept	-9.04401
▁accord	-9.04613
▁protesters	-9.04676
be	-9.04928
eihan	-9.04957
▁pro	-9.05122
▁Who	-9.05493
▁lead	-9.05498
▁favor	-9.05699
▁ne	-9.06039
bs	-9.06052
ought	-9.06267
▁done	-9.06357
0	-9.06428
▁abuse	-9.06454
▁star	-9.06951
leading	-9.07037
▁100	-9.07833
▁Then	-9.07979
K	-9.08073
▁viewers	-9.08453
hood	-9.0846
▁mov	-9.08534
▁represent	-9.08887
tive	-9.09299
id	-9.0931
▁mind	-9.09702
▁Re	-9.09902
▁states	-9.10093
ck	-9.10096
not	-9.1068
▁continue	-9.10788
▁second	-9.10853
▁situation	-9.10993
▁platform	-9.10994
▁message	-9.10995
7	-9.11008
▁role	-9.11031
▁source	-9.11044
▁shooting	-9.1112
came	-9.11152
▁Every	-9.11244
▁sign	-9.11297
▁leader	-9.11313
ous	-9.11541
▁interview	-9.11544
▁San	-9.11781
▁progressive	-9.11893
”:	-9.11948
▁describe	-9.12021
comes	-9.12555
▁staff	-9.12656
red	-9.12924
▁Chris	-9.13477
Jennifer	-9.13477
mckinney	-9.13477
Lesdoggg	-9.13477
kelsey	-9.13477
▁October	-9.13477
▁families	-9.13477
▁hashtag	-9.13477
▁sexist	-9.13477
▁NERC	-9.13478
▁themselves	-9.13478
▁cycle	-9.13478
▁Service	-9.13478
▁address	-9.13478
▁assault	-9.13478
JoeNBC	-9.13478
▁offensive	-9.13479
▁blood	-9.1348
▁conference	-9.13481
▁gotten	-9.13481
▁humor	-9.13482
▁upset	-9.13488
▁subject	-9.13488
▁specifically	-9.13493
▁Biles	-9.13497
▁RNC	-9.13498
▁television	-9.13499
▁worst	-9.13501
▁2013	-9.13501
▁short	-9.13532
▁deleted	-9.13539
▁announced	-9.13542
▁criminal	-9.13555
Maue	-9.13571
▁letter	-9.13605
▁cover	-9.13622
▁kids	-9.13627
▁immediately	-9.13635
▁sometimes	-9.13636
People	-9.13668
▁online	-9.13685
▁station	-9.13767
▁longer	-9.13809
▁Lochte	-9.1384
▁business	-9.13844
▁Abramowitz	-9.13844
▁cities	-9.13895
▁pope	-9.13906
▁form	-9.13924
▁repeated	-9.13944
▁taxes	-9.13951
▁14	-9.13998
▁important	-9.13998
▁James	-9.14019
▁trend	-9.14163
▁heard	-9.14168
▁pull	-9.14199
▁easy	-9.14207
▁critics	-9.14222
▁Barbie	-9.14325
▁posted	-9.14392
▁appeared	-9.14534
▁hous	-9.1456
▁sound	-9.14655
▁walk	-9.15079
▁extreme	-9.15084
▁inter	-9.15183
▁St	-9.15241
▁delegates	-9.15445
▁included	-9.15473
▁perform	-9.15483
▁step	-9.15534
led	-9.15597
ical	-9.15686
▁early	-9.1572
▁Bros	-9.16078
▁stage	-9.16144
▁leaders	-9.16201
ying	-9.16259
▁telling	-9.16441
Sean	-9.16483
aid	-9.16661
ial	-9.16769
ate	-9.16823
▁words	-9.16984
using	-9.17112
▁lo	-9.17175
▁Not	-9.17218
▁reasons	-9.17296
▁st	-9.17304
▁liv	-9.17885
▁polls	-9.17958
▁friend	-9.18471
▁times	-9.18526
▁knows	-9.1853
▁tone	-9.1871
▁realize	-9.18783
▁*	-9.19092
na	-9.1916
▁Ma	-9.19229
▁An	-9.19375
▁responsib	-9.19733
▁e	-9.19924
Y	-9.20735
fully	-9.21033
▁ab	-9.21263
▁r	-9.21354
▁final	-9.21472
▁fun	-9.21869
ite	-9.21877
▁near	-9.22162
▁job	-9.22294
▁charge	-9.22348
▁model	-9.22376
de	-9.22496
▁Just	-9.22687
▁book	-9.22775
▁complain	-9.23017
▁Jo	-9.23673
ts	-9.23713
accused	-9.23724
▁expect	-9.23969
▁drop	-9.24026
▁poor	-9.2426
▁weird	-9.24477
▁tax	-9.24523
Killer	-9.24587
kanyewest	-9.24589
▁Carolina	-9.24589
▁attempt	-9.24589
▁climate	-9.24589
▁difficult	-9.24589
▁energy	-9.24589
▁perhaps	-9.24589
▁rhetoric	-9.24589
▁sexual	-9.24589
▁built	-9.24589
▁control	-9.24589
▁damage	-9.24589
▁difference	-9.24589
▁000	-9.2459
▁Jewish	-9.2459
▁earlier	-9.2459
▁University	-9.24591
▁proud	-9.24594
▁population	-9.24594
▁huge	-9.24596
▁everything	-9.24607
▁outrage	-9.24608
▁massive	-9.24611
▁documentary	-9.24611
▁Khan	-9.24615
▁TSA	-9.24616
▁writing	-9.24625
▁pop	-9.24672
▁maybe	-9.24674
▁contest	-9.24689
▁picture	-9.24693
▁mention	-9.24704
▁apparent	-9.24708
▁water	-9.24718
▁possible	-9.24728
▁insist	-9.24735
▁bigger	-9.24753
▁writer	-9.24801
▁North	-9.24859
▁advocates	-9.24864
UN	-9.24906
▁added	-9.24967
▁board	-9.24994
▁months	-9.25018
Equ	-9.25062
▁grabb	-9.25087
▁failed	-9.25127
▁goal	-9.25145
▁gone	-9.25184
▁effective	-9.25191
til	-9.25211
▁expected	-9.25216
▁involved	-9.2525
▁happening	-9.25325
▁bar	-9.2537
▁apologize	-9.2538
▁foot	-9.25405
▁funny	-9.255
▁Bush	-9.25518
▁remember	-9.25529
ook	-9.25544
▁reach	-9.25595
▁heart	-9.25983
▁cost	-9.2605
▁either	-9.26141
▁su	-9.26277
▁wave	-9.26395
▁MSNBC	-9.26635
▁argue	-9.2667
▁hack	-9.26843
9	-9.27195
he	-9.27227
▁Sal	-9.2723
med	-9.27233
ish	-9.27322
▁bigge	-9.27448
Trump	-9.27729
▁ultimate	-9.2773
!”	-9.27773
▁claims	-9.27852
▁challenge	-9.27952
▁Los	-9.28139
ble	-9.28184
▁sub	-9.28256
ated	-9.28262
▁owners	-9.28412
CE	-9.29079
▁websites	-9.29156
▁raise	-9.29244
▁Da	-9.2928
eral	-9.29817
rey	-9.29978
▁ship	-9.30399
ified	-9.30585
ia	-9.30605
▁act	-9.308
▁sa	-9.30909
▁All	-9.31088
▁De	-9.31137
▁document	-9.3176
ations	-9.31926
ton	-9.32076
while	-9.32357
GOP	-9.32428
▁friends	-9.32586
ked	-9.3259
▁problems	-9.32661
▁per	-9.32759
▁members	-9.33492
▁Over	-9.33608
▁La	-9.33624
▁$5	-9.33878
▁statements	-9.34013
▁email	-9.34411
▁network	-9.34413
▁region	-9.34608
▁Reagan	-9.34838
▁laws	-9.34866
▁campaigns	-9.35079
▁Di	-9.35324
ine	-9.3544
ra	-9.35484
▁shot	-9.35544
▁ga	-9.35744
ol	-9.362
▁rape	-9.3644
▁stand	-9.36446
▁Up	-9.36485
pe	-9.36665
▁coup	-9.36696
▁read	-9.36787
▁Tim	-9.36939
▁fail	-9.36991
▁forecast	-9.37041
▁screen	-9.37043
ma	-9.37049
▁urban	-9.37075
Brexit	-9.37089
Neighborhood	-9.37089
joanwalsh	-9.37089
▁Lawrence	-9.37089
▁Monday	-9.37089
▁Virginia	-9.37089
▁William	-9.37089
▁beautiful	-9.37089
▁controversy	-9.37089
▁deserve	-9.37089
▁perfect	-9.37089
▁Earth	-9.37089
▁Francisco	-9.37089
▁Street	-9.37089
▁further	-9.37089
▁mainstream	-9.37089
▁audience	-9.37089
▁reproduc	-9.3709
▁influence	-9.37091
▁receive	-9.37091
MyMuslim	-9.37091
▁broadcast	-9.37092
▁judge	-9.37092
▁season	-9.37092
▁capture	-9.37093
▁Michelle	-9.37093
▁policies	-9.37093
▁Parent	-9.37095
▁impact	-9.37096
▁worry	-9.37099
▁typical	-9.371
▁executive	-9.371
▁2010	-9.37102
▁begin	-9.37102
▁2008	-9.37102
▁coast	-9.37116
▁Watch	-9.37122
▁direction	-9.37136
▁complete	-9.37181
▁reality	-9.37248
▁Planne	-9.37257
▁flooding	-9.37268
▁conditions	-9.37278
▁crime	-9.37377
▁imagine	-9.37379
▁pa	-9.37447
▁page	-9.37449
▁mother	-9.37455
▁faith	-9.37502
▁Mexico	-9.37533
▁pledge	-9.37535
▁proposal	-9.37542
▁follow	-9.37568
▁couple	-9.37572
▁finally	-9.37593
▁seven	-9.37685
▁tonight	-9.37691
▁reporting	-9.37753
▁prevent	-9.37755
▁following	-9.37788
▁town	-9.37789
▁meeting	-9.37807
lack	-9.3787
▁Bay	-9.37939
▁basic	-9.37976
▁wait	-9.38084
▁meet	-9.38118
over	-9.3812
▁culture	-9.38185
▁Josh	-9.38196
▁neighborhoods	-9.38219
▁notice	-9.38235
▁sent	-9.38281
▁bias	-9.38295
ard	-9.38381
▁Kim	-9.3883
that	-9.38839
▁create	-9.38893
▁named	-9.38893
old	-9.39046
▁worked	-9.39083
weather	-9.39118
▁Gov	-9.39173
▁meant	-9.39226
▁happens	-9.39279
erman	-9.39392
▁Alwaleed	-9.39426
▁fake	-9.39472
sive	-9.39508
isen	-9.39568
▁sort	-9.39652
▁jobs	-9.39769
▁rise	-9.39943
appropriate	-9.40055
▁list	-9.40606
▁Was	-9.40657
▁views	-9.40717
ade	-9.40998
▁ha	-9.41734
ending	-9.4177
▁fed	-9.42023
▁notes	-9.42088
▁qui	-9.42133
▁ran	-9.42249
▁br	-9.42329
▁lives	-9.42587
▁share	-9.42743
ions	-9.42885
▁na	-9.42894
ian	-9.43002
▁sides	-9.4322
way	-9.43255
▁weigh	-9.4336
▁Go	-9.4343
ability	-9.44018
▁ration	-9.44034
▁Ne	-9.44114
stage	-9.448
who	-9.45204
ollins	-9.45265
W	-9.45304
00	-9.45562
▁blame	-9.45888
▁k	-9.45896
ious	-9.45966
get	-9.46068
▁Fro	-9.46266
fare	-9.46311
ize	-9.46315
Perry	-9.46451
though	-9.46797
ANY	-9.46807
Ryan	-9.46824
ac	-9.4719
▁happen	-9.47358
For	-9.47502
▁lines	-9.47607
▁target	-9.47962
▁encourage	-9.4797
cked	-9.48353
▁men	-9.48688
▁individual	-9.48841
▁result	-9.48932
▁standard	-9.48982
▁feminist	-9.49021
▁Broad	-9.49295
▁cut	-9.49463
▁liberal	-9.49521
▁fine	-9.49826
ually	-9.50148
ped	-9.50269
▁sh	-9.50381
ility	-9.50398
▁Free	-9.50522
▁maintain	-9.50706
▁tech	-9.5073
▁design	-9.50758
▁entire	-9.50928
▁object	-9.51022
side	-9.51123
▁wonder	-9.51212
▁nation	-9.51216
▁Le	-9.51243
L	-9.51336
▁success	-9.5134
MattBruenig	-9.51374
amyschumer	-9.51374
▁Cleveland	-9.51374
▁Director	-9.51374
▁Instead	-9.51374
▁November	-9.51374
▁Perhaps	-9.51374
▁Pescatelli	-9.51374
▁multi	-9.51374
▁terrible	-9.51374
▁traffic	-9.51374
▁unclear	-9.51374
▁Hampshire	-9.51374
▁Security	-9.51374
▁afternoon	-9.51374
▁process	-9.51374
▁scheme	-9.51374
Lowry	-9.51375
▁Tanden	-9.51375
▁Leslie	-9.51375
▁future	-9.51375
▁HBO	-9.51375
▁Broaddrick	-9.51375
▁Midler	-9.51375
▁Ohio	-9.51375
written	-9.51376
▁mistake	-9.51376
▁wife	-9.51376
▁racism	-9.51377
▁piece	-9.51377
▁honest	-9.51377
▁analys	-9.51378
▁children	-9.5138
▁insult	-9.5138
▁Doyle	-9.5138
▁impossible	-9.5138
▁demand	-9.51382
undred	-9.51382
▁backlash	-9.51383
▁thousand	-9.51383
▁Hicks	-9.51388
BernieSanders	-9.51391
Rosie	-9.51391
▁background	-9.51393
▁herself	-9.51393
▁replace	-9.51394
▁polar	-9.51394
▁DNC	-9.51397
▁food	-9.51401
▁billion	-9.51407
▁definition	-9.51412
▁medal	-9.51414
▁worth	-9.51417
▁sleep	-9.51419
▁chance	-9.51425
▁powerful	-9.51426
▁Show	-9.51432
▁boom	-9.51437
▁alleged	-9.51439
▁supposed	-9.51444
▁se	-9.51446
▁si	-9.51448
Thomas	-9.51472
▁strategy	-9.51477
▁flying	-9.51493
▁Basics	-9.51498
▁serve	-9.51503
▁guess	-9.51515
▁project	-9.51522
▁Oregon	-9.51523
▁listen	-9.51525
▁researchers	-9.51529
▁float	-9.51565
▁scientists	-9.51593
▁ratings	-9.51594
▁growing	-9.51608
▁headline	-9.51645
▁bust	-9.51679
▁(4	-9.51739
Gray	-9.51765
▁instance	-9.51771
▁FO	-9.51814
▁weak	-9.51831
▁web	-9.51843
▁throw	-9.5187
▁similar	-9.51873
▁necessar	-9.51877
▁Nowruz	-9.5188
▁experience	-9.51881
▁blizzard	-9.51901
▁Jeb	-9.51907
▁block	-9.51946
▁allegations	-9.5195
▁killed	-9.51956
▁officers	-9.51982
▁reference	-9.51985
▁Cox	-9.52007
▁Area	-9.52037
▁track	-9.52059
▁safe	-9.52097
▁Super	-9.52162
▁dreams	-9.52316
Rich	-9.52362
▁break	-9.52378
▁(1	-9.5241
▁land	-9.52424
▁rant	-9.5246
▁defend	-9.52605
▁given	-9.52608
ple	-9.52614
▁ABC	-9.52629
▁room	-9.52651
▁spend	-9.52798
▁accusations	-9.52824
▁wage	-9.52937
▁services	-9.53048
▁doll	-9.53074
▁IN	-9.53247
▁editor	-9.53331
▁projects	-9.53515
▁normal	-9.53554
▁salt	-9.53659
▁civil	-9.537
Jill	-9.53815
▁By	-9.53947
do	-9.53949
▁reasonable	-9.53991
tion	-9.54065
▁Vo	-9.54126
▁heavi	-9.54595
ely	-9.54721
▁fel	-9.54739
▁increase	-9.55121
ix	-9.5513
▁Cost	-9.55229
▁choices	-9.55235
▁debates	-9.5526
▁Mars	-9.55452
▁appoint	-9.55585
▁test	-9.55626
ie	-9.55696
▁reflect	-9.55799
▁deep	-9.55832
national	-9.55862
▁records	-9.55961
▁member	-9.56017
▁double	-9.56147
sa	-9.56148
▁Mel	-9.56307
om	-9.56885
▁sit	-9.57018
▁examples	-9.57046
▁conservatives	-9.57186
▁po	-9.57224
honor	-9.5733
rs	-9.57411
▁Mar	-9.57625
cial	-9.57701
▁refus	-9.57702
▁character	-9.57721
▁Lo	-9.57968
son	-9.58005
▁sp	-9.58464
ding	-9.58789
right	-9.58791
▁Sen	-9.58993
▁groups	-9.59181
▁noted	-9.59664
with	-9.59733
▁jokes	-9.60026
ka	-9.60191
▁names	-9.60221
ern	-9.60249
▁rule	-9.60347
im	-9.60357
▁198	-9.60562
time	-9.60956
mplicated	-9.61026
▁pass	-9.61405
▁El	-9.61476
▁bi	-9.61747
No	-9.61798
17	-9.61918
shed	-9.61928
▁stud	-9.61954
▁199	-9.62022
And	-9.62208
▁engage	-9.62449
iversity	-9.62488
atche	-9.62698
back	-9.62708
WE	-9.62849
▁introduc	-9.62898
ler	-9.63112
▁en	-9.63113
▁Me	-9.63177
ul	-9.63182
He	-9.6325
cross	-9.63382
establishment	-9.63418
NBC	-9.63468
▁Al	-9.63478
DC	-9.63499
▁Er	-9.64082
person	-9.64343
new	-9.64478
▁old	-9.64583
▁stat	-9.65082
▁communit	-9.65106
▁Se	-9.65163
▁weekend	-9.65316
▁write	-9.6535
▁threat	-9.65444
▁photo	-9.65508
▁State	-9.65724
In	-9.65761
▁Ru	-9.65842
nd	-9.65883
▁image	-9.66027
antic	-9.66141
▁chant	-9.66208
▁artist	-9.66243
▁voter	-9.66586
2016	-9.66728
▁u	-9.66883
▁cha	-9.66884
▁please	-9.67632
la	-9.67821
▁dat	-9.67919
▁desp	-9.67946
▁publi	-9.6799
▁Depart	-9.68001
▁specific	-9.68013
▁secret	-9.68025
▁avoid	-9.68041
▁reiterat	-9.68041
halifa	-9.68041
▁Attenborough	-9.68041
▁Congress	-9.68041
▁Europe	-9.68041
▁LGBT	-9.68041
▁Pedretti	-9.68041
▁Raddatz	-9.68041
▁Reddit	-9.68041
▁approach	-9.68041
▁athletes	-9.68041
▁dangerous	-9.68041
▁immigration	-9.68041
▁natural	-9.68041
▁perceive	-9.68041
▁phenomenon	-9.68041
▁sacrifice	-9.68041
▁awesome	-9.68041
▁correct	-9.68041
▁opinion	-9.68041
▁teammate	-9.68041
▁school	-9.68041
▁Boston	-9.68041
▁Convention	-9.68041
▁sustain	-9.68042
relatively	-9.68042
▁outlets	-9.68042
▁sisters	-9.68042
▁affect	-9.68042
▁ideological	-9.68042
▁violent	-9.68043
▁Charles	-9.68044
▁Antoni	-9.68044
▁risk	-9.68045
▁twice	-9.68045
▁transit	-9.68046
KillerMike	-9.68047
▁outside	-9.68049
▁illegal	-9.68051
▁fuel	-9.68056
▁device	-9.68056
▁baby	-9.68058
▁above	-9.68059
▁flight	-9.68062
▁camp	-9.68063
▁happy	-9.68064
Debbi	-9.68065
Glitch	-9.68085
▁harm	-9.68085
▁scene	-9.68089
▁jury	-9.68092
▁hold	-9.68094
▁match	-9.68104
▁winter	-9.68127
▁film	-9.68139
▁Indiana	-9.68147
▁frequently	-9.68163
▁common	-9.68172
▁sororit	-9.68175
▁reform	-9.68195
▁update	-9.68202
▁unfair	-9.68203
▁threaten	-9.68229
▁bill	-9.68254
▁forward	-9.68268
▁parties	-9.68269
▁five	-9.68272
▁below	-9.6828
▁vaccines	-9.6831
controversial	-9.68338
▁Jane	-9.68348
ather	-9.68363
▁promised	-9.68389
▁surro	-9.68403
▁explore	-9.68423
▁explain	-9.68505
▁ready	-9.68505
▁Mark	-9.68517
▁procedure	-9.68528
ational	-9.68621
▁together	-9.6863
▁absolute	-9.68632
▁Liebman	-9.68634
▁Today	-9.6864
▁indeed	-9.68649
▁Luci	-9.68666
▁battle	-9.68674
▁minutes	-9.68725
▁employees	-9.68726
▁activists	-9.68729
▁information	-9.68736
▁promot	-9.68818
▁targeted	-9.68821
ay	-9.68875
▁dropp	-9.69013
▁criticiz	-9.6906
Still	-9.69193
▁identi	-9.69416
ring	-9.69424
▁journalists	-9.69483
▁Eric	-9.69485
▁BuzzFeed	-9.695
▁generally	-9.69554
▁willing	-9.69706
unding	-9.69741
▁Olympics	-9.6975
istic	-9.69763
▁snowf	-9.69804
Our	-9.69806
▁believed	-9.69824
aylor	-9.69866
▁changed	-9.69882
▁Rep	-9.69911
▁soon	-9.69912
▁house	-9.69914
▁terms	-9.69978
uring	-9.7001
▁tend	-9.70145
▁birth	-9.70245
▁images	-9.70319
▁phone	-9.70329
▁HRC	-9.70348
▁app	-9.70365
▁Science	-9.70379
mmunity	-9.70556
▁complaint	-9.70644
unlikely	-9.70809
▁characters	-9.70835
▁Brit	-9.70932
▁small	-9.7098
▁hell	-9.71222
et	-9.714
▁expos	-9.71433
tchel	-9.71718
▁feeling	-9.71735
pm	-9.71838
▁Can	-9.71863
▁gas	-9.71971
▁progressives	-9.72246
▁door	-9.72347
▁characteriz	-9.72561
posed	-9.72777
onathan	-9.72862
▁add	-9.72897
▁officials	-9.72992
▁courts	-9.72998
▁mo	-9.73105
▁Hermi	-9.73212
ley	-9.73409
▁Stephen	-9.73582
▁prove	-9.73615
▁faces	-9.73651
▁King	-9.73796
ities	-9.73821
▁ability	-9.73913
li	-9.73954
▁heads	-9.73961
by	-9.74103
nance	-9.74144
▁God	-9.74251
Alan	-9.74492
ating	-9.75128
ge	-9.75188
▁o	-9.75262
nce	-9.75292
▁predict	-9.75591
eth	-9.75723
▁thank	-9.75755
▁Li	-9.75828
▁def	-9.75862
N	-9.76036
▁Th	-9.76153
▁wins	-9.76368
▁di	-9.76429
▁hi	-9.76558
▁fo	-9.76779
for	-9.76814
▁citizens	-9.77395
▁events	-9.77651
▁lose	-9.77701
zy	-9.77935
▁handle	-9.78145
co	-9.78372
▁los	-9.78565
▁award	-9.78587
cha	-9.78802
▁discuss	-9.79034
aw	-9.79221
▁aw	-9.7947
▁applie	-9.79563
ide	-9.79657
▁votes	-9.79688
▁bot	-9.80041
ught	-9.80384
▁vers	-9.80735
green	-9.80782
▁evening	-9.80936
▁Nor	-9.81069
▁car	-9.8127
But	-9.81535
no	-9.81662
▁Is	-9.81689
com	-9.81761
▁moderate	-9.8177
ling	-9.81807
van	-9.8182
ust	-9.81861
▁nam	-9.82146
▁cru	-9.82315
▁tradition	-9.82501
Nero	-9.82945
Rubio	-9.83091
where	-9.83708
▁compar	-9.83737
▁heav	-9.84115
▁vi	-9.84443
▁Ke	-9.84515
MA	-9.84537
fighting	-9.84654
▁Rob	-9.84722
▁report	-9.84912
lies	-9.85083
▁professional	-9.85316
▁reader	-9.85455
AP	-9.85548
▁voice	-9.85575
▁figure	-9.85644
▁term	-9.85751
lines	-9.85834
▁sentence	-9.85867
▁Ga	-9.85947
ship	-9.86041
At	-9.86087
ke	-9.86135
icated	-9.86167
▁organization	-9.86176
▁service	-9.86284
▁le	-9.86439
DallasP	-9.86669
▁persona	-9.86708
▁Phil	-9.86811
▁Un	-9.86852
▁medic	-9.87309
▁unusual	-9.87561
▁80	-9.87758
nother	-9.87837
▁admit	-9.87998
ctionaries	-9.88015
ING	-9.88037
BanNero	-9.88041
Debate	-9.88041
JamesHand	-9.88041
McKelvie	-9.88041
ToneDownForWhat	-9.88041
WontBePunished	-9.88041
megynkelly	-9.88041
neeratanden	-9.88041
▁ADHD	-9.88041
▁AIDS	-9.88041
▁Amendment	-9.88041
▁Business	-9.88041
▁Governor	-9.88041
▁Iraq	-9.88041
▁Mexican	-9.88041
▁Microsoft	-9.88041
▁Sestak	-9.88041
▁behalf	-9.88041
▁critique	-9.88041
▁overwhelm	-9.88041
▁podium	-9.88041
▁revolution	-9.88041
▁sexism	-9.88041
▁Amiri	-9.88041
▁Capit	-9.88041
▁remind	-9.88041
▁replied	-9.88041
▁vulnerab	-9.88041
▁muscles	-9.88041
▁Putin	-9.88041
▁deliver	-9.88041
▁acknowledg	-9.88042
▁afford	-9.88042
▁aspect	-9.88042
Israel	-9.88042
▁notorious	-9.88042
Glenn	-9.88042
▁dominance	-9.88042
▁ridiculous	-9.88042
▁express	-9.88042
▁Yelp	-9.88043
▁accurate	-9.88043
▁shift	-9.88043
ump	-9.88043
▁alternative	-9.88043
Maddock	-9.88043
▁literally	-9.88043
▁clinic	-9.88043
▁front	-9.88044
▁Laura	-9.88044
▁segment	-9.88044
▁peaceful	-9.88044
▁fraud	-9.88044
▁countries	-9.88045
▁precedent	-9.88045
▁welcome	-9.88045
▁opposition	-9.88045
▁Walsh	-9.88046
▁repeal	-9.88047
▁dispute	-9.88047
▁announcement	-9.88047
▁finish	-9.88047
▁return	-9.88049
▁footage	-9.8805
▁yourself	-9.8805
▁nature	-9.88053
▁reaction	-9.88054
▁myself	-9.88054
▁NeverTrumpers	-9.88056
kept	-9.88058
▁permission	-9.88058
▁beginning	-9.88059
▁agency	-9.88061
▁South	-9.88062
▁BBC	-9.88062
▁certificate	-9.88064
▁consisten	-9.88065
▁leadership	-9.88065
▁reveal	-9.88065
▁inspir	-9.88068
▁Melania	-9.88069
▁convo	-9.88071
▁paper	-9.88074
▁Syria	-9.88076
▁MTV	-9.88078
▁discover	-9.88078
▁summer	-9.8808
▁coverage	-9.88081
▁Hope	-9.88089
▁pride	-9.88095
▁doubt	-9.88102
▁private	-9.88105
▁bitter	-9.88109
▁clarified	-9.88109
▁spent	-9.8811
▁truth	-9.88118
▁somehow	-9.88122
▁primaries	-9.88124
▁leaving	-9.88139
▁join	-9.8814
jack	-9.8815
▁pressure	-9.88154
▁mix	-9.88155
▁refer	-9.88155
▁fix	-9.88164
▁learn	-9.88165
▁Rick	-9.88166
▁prompt	-9.88172
Talal	-9.88183
▁desire	-9.88208
Golden	-9.88222
▁ethic	-9.88242
ale	-9.88242
▁resource	-9.88246
▁practical	-9.88258
ative	-9.88263
▁personality	-9.8828
▁brand	-9.88302
▁More	-9.88303
▁skin	-9.88308
▁physical	-9.88342
▁clash	-9.88349
▁travel	-9.88353
▁recognize	-9.88356
▁widely	-9.88358
▁institutions	-9.88358
▁agreement	-9.88364
▁equal	-9.88369
▁suspend	-9.88422
FS	-9.88449
▁banned	-9.88449
▁required	-9.8845
▁Park	-9.88454
▁fairly	-9.88463
▁Conn	-9.88513
Milo	-9.88548
proportion	-9.88549
▁slow	-9.8858
▁reply	-9.8859
▁pleased	-9.88594
▁administration	-9.88613
▁entirely	-9.88688
▁fashion	-9.88701
▁bank	-9.88706
▁ugly	-9.88719
▁phrase	-9.88739
offe	-9.88746
▁chief	-9.88749
▁Madaya	-9.88757
▁construction	-9.88759
▁Also	-9.8876
▁Because	-9.88761
▁English	-9.88764
▁Hip	-9.88772
▁Like	-9.88784
▁manage	-9.88789
▁Green	-9.88811
▁active	-9.88822
▁impr	-9.88832
▁unity	-9.88855
▁consequences	-9.88889
▁circles	-9.88892
constitutional	-9.88957
▁designed	-9.88958
▁responde	-9.88961
ell	-9.88963
▁react	-9.8904
ously	-9.89093
▁seriously	-9.89103
arious	-9.89164
▁fuck	-9.89189
▁elected	-9.89196
▁original	-9.89244
ON	-9.89246
▁rock	-9.8927
▁surge	-9.8932
ably	-9.89347
▁hey	-9.89409
▁estimates	-9.89422
▁rivals	-9.89429
▁politicians	-9.89431
▁airports	-9.89449
mike	-9.89527
▁hot	-9.89543
riff	-9.89552
▁god	-9.89636
▁losing	-9.89654
▁involve	-9.89682
▁rest	-9.89688
▁career	-9.89771
▁”@	-9.89797
▁Man	-9.898
▁sold	-9.89804
▁headed	-9.89805
AL	-9.89823
▁Central	-9.89833
▁Ferguson	-9.89835
▁Holthaus	-9.89835
available	-9.89864
per	-9.89887
▁positive	-9.89923
▁200	-9.8994
un	-9.89947
▁Prince	-9.9005
▁counter	-9.90153
▁publication	-9.90157
▁Yes	-9.90164
ick	-9.90171
▁reading	-9.90181
▁tru	-9.90288
▁Speak	-9.90376
▁explains	-9.90459
▁possib	-9.90635
▁Jon	-9.90648
▁trop	-9.90764
She	-9.90776
▁bor	-9.90811
▁stopp	-9.90857
ophobi	-9.90895
▁gravity	-9.90923
▁Since	-9.9094
▁spread	-9.91007
▁wel	-9.91084
▁threats	-9.91176
▁giv	-9.912
▁Schu	-9.91303
ask	-9.91333
we	-9.91449
▁standards	-9.91603
ES	-9.91741
▁cuts	-9.91817
▁buy	-9.91901
ingly	-9.91923
ow	-9.91926
▁sc	-9.91961
ideo	-9.91966
▁ideal	-9.92085
rmed	-9.92271
▁models	-9.92475
▁ver	-9.92585
pped	-9.92639
▁Final	-9.92722
▁retweet	-9.92738
ost	-9.9278
▁voted	-9.9285
mbe	-9.9299
▁questioned	-9.93144
▁rough	-9.93148
▁Late	-9.93151
▁fell	-9.93335
ro	-9.93414
▁gon	-9.93539
▁forces	-9.93672
▁nominate	-9.93757
▁sites	-9.93879
rum	-9.9391
▁supported	-9.94003
▁plane	-9.94038
▁needed	-9.94061
▁Inside	-9.94078
▁checks	-9.94239
▁define	-9.94478
▁introduce	-9.94702
▁hands	-9.94762
dom	-9.94787
gging	-9.94852
▁showed	-9.94899
▁Ha	-9.9523
▁ways	-9.95428
asically	-9.9547
▁fast	-9.95481
▁red	-9.95934
H	-9.95961
usually	-9.96396
hink	-9.96533
▁Mo	-9.96681
Gary	-9.96689
port	-9.9676
▁bann	-9.96903
▁memes	-9.96905
▁matters	-9.9695
▁dec	-9.96976
ree	-9.97067
▁weeks	-9.97073
▁violat	-9.97412
▁aide	-9.9764
▁fac	-9.97797
missed	-9.97937
hip	-9.98088
ried	-9.98094
▁plann	-9.98268
▁Sa	-9.98395
▁prior	-9.98412
▁Jack	-9.98521
▁accounts	-9.98557
ooked	-9.98704
ini	-9.9878
stance	-9.98861
lly	-9.98962
▁Good	-9.98995
▁answers	-9.99124
▁changes	-9.99321
▁shake	-9.99598
▁AM	-9.99635
plicit	-9.99667
▁oppos	-9.9967
▁Sp	-9.99827
▁fir	-9.99961
▁type	-9.99992
▁accus	-10.0018
▁believes	-10.0028
▁Eli	-10.0035
ain	-10.004
tly	-10.0055
bed	-10.0085
ession	-10.0089
▁smile	-10.0096
▁hostil	-10.0112
▁caus	-10.0123
now	-10.0139
▁severe	-10.015
▁disappoint	-10.0173
Politics	-10.0173
atch	-10.0179
▁Dem	-10.0201
either	-10.0216
▁increas	-10.0229
agazine	-10.0233
nna	-10.0243
ri	-10.0251
▁fi	-10.0265
▁mad	-10.0274
▁fe	-10.0287
▁Mu	-10.0308
stron	-10.0319
unt	-10.0329
ier	-10.0344
ut	-10.0346
▁mock	-10.0347
▁ends	-10.0366
▁trans	-10.037
▁Of	-10.0391
▁afr	-10.0434
▁fa	-10.0442
▁age	-10.0446
▁commit	-10.0447
ice	-10.0477
▁balance	-10.0479
▁bu	-10.0485
▁tour	-10.0492
uff	-10.0515
▁drama	-10.0527
line	-10.0527
ope	-10.0534
▁verifi	-10.0553
very	-10.0571
▁winn	-10.0575
▁Col	-10.0582
▁handl	-10.0584
▁abortions	-10.0588
fore	-10.0607
http	-10.0629
llege	-10.063
tically	-10.063
▁main	-10.0632
which	-10.0669
because	-10.0692
Bee	-10.0693
▁ja	-10.0707
07	-10.0719
fall	-10.0731
▁wa	-10.0734
ming	-10.0743
▁Sad	-10.0764
NeverTrump	-10.078
What	-10.078
ash	-10.0781
tal	-10.0785
▁Be	-10.0793
When	-10.0794
30	-10.0809
Black	-10.0814
bal	-10.0814
Lewandowski	-10.0816
hall	-10.0817
going	-10.0819
Alwaleed	-10.0823
▁canno	-10.0824
MSNBC	-10.0826
Amy	-10.083
fake	-10.0845
change	-10.0853
▁90	-10.0854
reasonable	-10.0854
acceptable	-10.0861
News	-10.0871
Mr	-10.0887
My	-10.0894
late	-10.0899
▁Fi	-10.09
ns	-10.0914
▁market	-10.0923
hile	-10.0933
▁collecti	-10.0957
They	-10.0969
ey	-10.1012
▁blog	-10.1019
▁episode	-10.1025
▁doctor	-10.1025
▁scream	-10.1025
▁benefit	-10.1026
▁Tay	-10.1053
▁associat	-10.1056
ga	-10.1072
▁moderator	-10.1075
▁journalist	-10.1083
▁odd	-10.1099
oned	-10.1108
▁neighborhood	-10.1155
ould	-10.1171
there	-10.1174
▁continu	-10.1175
ior	-10.1178
▁sen	-10.1183
NC	-10.119
ju	-10.1201
▁Y	-10.1218
▁becom	-10.1218
▁fr	-10.1221
tributed	-10.1228
ege	-10.1236
rupt	-10.1239
▁sentenc	-10.1243
▁ignore	-10.1252
▁essential	-10.1258
▁immediate	-10.1262
▁intern	-10.1271
▁wear	-10.1291
▁ground	-10.1293
ublic	-10.1296
▁Pa	-10.1299
▁harass	-10.1301
▁strateg	-10.1302
▁prefer	-10.1304
DWStweets	-10.1304
Filipovic	-10.1304
FoxBusiness	-10.1304
NERCscience	-10.1304
Oxford	-10.1304
Scripps	-10.1304
Smooth	-10.1304
Szatkowski	-10.1304
daveweigel	-10.1304
delrayser	-10.1304
dynamic	-10.1304
▁Clownstick	-10.1304
▁Committee	-10.1304
▁Constitution	-10.1304
▁Gamergate	-10.1304
▁Gillen	-10.1304
▁Instagram	-10.1304
▁accident	-10.1304
▁bizarre	-10.1304
▁brief	-10.1304
▁brilliant	-10.1304
▁column	-10.1304
▁contrast	-10.1304
▁credible	-10.1304
▁declared	-10.1304
▁explanation	-10.1304
▁fundamental	-10.1304
▁hurricane	-10.1304
▁nostalgi	-10.1304
▁previous	-10.1304
▁robbery	-10.1304
▁separate	-10.1304
▁slogan	-10.1304
▁volunteer	-10.1304
▁yesterday	-10.1304
TerpWeather	-10.1304
▁McGinty	-10.1304
▁Meridian	-10.1304
▁Saudi	-10.1304
▁achieve	-10.1304
▁damaging	-10.1304
▁hilarious	-10.1304
▁husband	-10.1304
▁Christian	-10.1304
▁Hyde	-10.1304
▁democra	-10.1304
▁dictionary	-10.1304
▁irony	-10.1304
Bracey	-10.1304
Kennie	-10.1304
▁minimum	-10.1304
▁Kushner	-10.1304
▁champion	-10.1304
▁asshole	-10.1304
▁enemy	-10.1304
▁Carlos	-10.1304
▁Hurst	-10.1304
▁false	-10.1304
▁review	-10.1304
▁authority	-10.1304
▁ocean	-10.1304
▁Warren	-10.1304
▁Kratz	-10.1304
▁Women	-10.1304
tedcruz	-10.1304
▁fruit	-10.1304
▁murder	-10.1304
▁ahead	-10.1304
▁Duke	-10.1304
▁disease	-10.1304
▁tempera	-10.1304
▁title	-10.1304
▁initial	-10.1304
▁blessings	-10.1304
▁Frank	-10.1305
▁begun	-10.1305
▁ballot	-10.1305
Comedy	-10.1305
▁computer	-10.1305
▁crash	-10.1305
▁half	-10.1305
▁field	-10.1305
▁outlaw	-10.1305
▁borrow	-10.1305
▁stuff	-10.1305
▁Jodi	-10.1305
▁bottom	-10.1305
Stirling	-10.1305
▁Demos	-10.1305
▁2009	-10.1306
▁rallies	-10.1306
▁arrive	-10.1306
▁jump	-10.1306
▁skeptic	-10.1306
▁proposed	-10.1306
▁alliance	-10.1306
▁duty	-10.1306
▁uncomfortable	-10.1306
▁caucuses	-10.1306
verage	-10.1307
▁advance	-10.1307
▁Abbi	-10.1307
▁penalty	-10.1307
▁600	-10.1308
▁implication	-10.1308
▁revers	-10.1308
▁version	-10.1308
▁disparag	-10.1308
▁usage	-10.1308
Chuck	-10.1308
▁expand	-10.1308
▁decent	-10.131
▁transition	-10.131
SA	-10.131
▁peers	-10.131
▁Department	-10.1311
▁hackers	-10.1311
▁Ailes	-10.1311
▁settled	-10.1311
▁adviser	-10.1312
▁grand	-10.1312
▁Nation	-10.1312
▁assimilate	-10.1312
▁demonstrat	-10.1313
▁religio	-10.1313
ny	-10.1314
▁nice	-10.1314
▁border	-10.1314
▁anymore	-10.1315
▁lift	-10.1315
▁Statement	-10.1315
So	-10.1315
▁trust	-10.1316
▁camera	-10.1316
▁reviv	-10.1316
▁exist	-10.1316
▁educati	-10.1317
▁amazing	-10.1319
▁unfortunate	-10.132
▁advertising	-10.132
▁grop	-10.132
▁motivat	-10.132
▁laughing	-10.132
▁loose	-10.132
▁center	-10.1321
▁Six	-10.1322
▁prepared	-10.1323
▁cops	-10.1323
▁gender	-10.1323
▁suddenly	-10.1324
Sherman	-10.1325
regonUnderAttack	-10.1325
▁warning	-10.1326
▁Cha	-10.1327
▁chair	-10.1328
▁anthem	-10.1329
▁shocked	-10.1329
▁defeat	-10.1329
▁bragg	-10.1329
▁ruling	-10.1332
▁limited	-10.1333
▁Music	-10.1334
lana	-10.1335
▁improv	-10.1335
▁emphasized	-10.1336
▁details	-10.1337
▁Other	-10.1338
▁visit	-10.1339
▁funds	-10.1339
▁wind	-10.1342
quality	-10.1342
▁publicity	-10.1343
▁trial	-10.1343
▁emerge	-10.1343
▁Ven	-10.1343
▁tactics	-10.1345
▁immigrants	-10.1346
▁swimmers	-10.1346
lo	-10.1346
bert	-10.1347
▁mass	-10.1347
▁1996	-10.1349
▁train	-10.1349
▁victims	-10.1349
▁broken	-10.1349
▁entering	-10.135
▁backwards	-10.1351
▁essentially	-10.1351
▁sample	-10.1351
▁equally	-10.1352
Jeet	-10.1353
▁exercise	-10.1353
▁communication	-10.1353
▁independent	-10.1354
▁jam	-10.1355
era	-10.1355
▁technology	-10.1355
▁remarks	-10.1355
▁visibl	-10.1356
▁debt	-10.1357
▁fault	-10.1358
abzeh	-10.1363
▁generation	-10.1372
▁chart	-10.1375
▁stake	-10.1375
▁35	-10.1378
▁exclude	-10.1383
▁gold	-10.1386
▁rates	-10.1387
text	-10.1388
▁speed	-10.1389
▁exten	-10.1392
▁discussed	-10.1393
▁teen	-10.1394
▁street	-10.1394
▁aggressive	-10.1396
▁opportunity	-10.1396
▁Santorum	-10.1397
▁unprecedented	-10.1397
▁Phelps	-10.1397
▁kick	-10.14
▁primari	-10.1403
▁ashamed	-10.1409
zra	-10.1411
▁parents	-10.1412
▁monet	-10.1412
▁appearances	-10.1416
▁fem	-10.1419
▁Report	-10.1421
▁prayer	-10.1422
gar	-10.1424
▁destroy	-10.1427
zens	-10.143
▁maintained	-10.143
BoatyMcBoatface	-10.143
▁rep	-10.1434
▁cool	-10.1436
ihan	-10.1438
▁light	-10.1444
▁realm	-10.145
ta	-10.1459
dy	-10.1464
▁promise	-10.1465
ach	-10.1465
▁skill	-10.1469
Team	-10.1474
ca	-10.1479
▁guard	-10.1487
▁decades	-10.1487
▁stereotypes	-10.1488
▁East	-10.1502
▁tank	-10.1504
▁broad	-10.1506
▁values	-10.1508
▁wide	-10.1512
▁friendly	-10.1514
va	-10.1524
▁carrie	-10.1536
▁Bowl	-10.1538
▁feed	-10.1538
ction	-10.154
▁feature	-10.1541
ssociation	-10.1543
▁draw	-10.1544
Dana	-10.1544
▁winds	-10.1549
▁actors	-10.1549
▁NA	-10.155
▁Lee	-10.1554
▁remarkabl	-10.1555
▁birther	-10.1556
concert	-10.1563
▁features	-10.1567
▁ev	-10.1581
UT	-10.161
Katy	-10.161
▁standing	-10.1615
due	-10.1618
▁kill	-10.1621
▁Lin	-10.1626
▁voices	-10.1629
▁figures	-10.163
▁differently	-10.1634
▁Bash	-10.1661
▁Never	-10.1675
▁lived	-10.1689
surprisingly	-10.1698
lder	-10.1702
▁seek	-10.1706
uck	-10.1709
▁bars	-10.1745
▁cit	-10.1755
▁bulls	-10.1757
▁medical	-10.1769
▁results	-10.1772
▁Ka	-10.1773
▁son	-10.1774
kw	-10.1776
▁increases	-10.1781
▁wh	-10.1784
incredible	-10.1803
▁bud	-10.1817
merely	-10.1825
▁acceptable	-10.1839
ack	-10.1843
irst	-10.1853
vice	-10.186
▁competen	-10.1861
▁mile	-10.1866
▁pi	-10.1886
dio	-10.1895
▁Blo	-10.1896
tally	-10.1896
▁gain	-10.1899
▁charges	-10.1899
▁Ye	-10.1901
chel	-10.191
▁sell	-10.1911
▁Andre	-10.1912
▁tri	-10.1948
▁stem	-10.1952
▁encourag	-10.1966
omberg	-10.1984
▁shootings	-10.1985
ore	-10.1986
tic	-10.199
▁art	-10.1991
▁rap	-10.1996
▁Nero	-10.2
arc	-10.202
▁guns	-10.2023
▁compare	-10.2031
▁sources	-10.2043
io	-10.205
▁midd	-10.205
fis	-10.2058
▁send	-10.2061
▁participate	-10.2114
cept	-10.2124
▁qu	-10.2125
▁cry	-10.2127
▁evolv	-10.2158
raising	-10.2159
▁org	-10.2166
efore	-10.2167
age	-10.2175
▁Ed	-10.2185
▁Cr	-10.2191
▁celebrate	-10.2207
▁origin	-10.2207
▁Am	-10.2207
▁Are	-10.2213
▁Te	-10.2224
▁Press	-10.2226
▁embrace	-10.2235
▁appreciate	-10.2242
stant	-10.2248
anger	-10.2261
ci	-10.228
Tom	-10.2294
▁stars	-10.23
pper	-10.2319
▁maint	-10.232
▁fee	-10.2339
enson	-10.234
▁develop	-10.2341
ans	-10.2357
Day	-10.236
▁committe	-10.2368
▁acts	-10.2373
▁legal	-10.2395
▁positions	-10.2408
aught	-10.2414
aut	-10.2421
lower	-10.2437
▁Del	-10.2458
▁prom	-10.2469
ames	-10.2477
▁plant	-10.2513
▁games	-10.2548
held	-10.2562
11	-10.2576
▁minor	-10.2592
▁wi	-10.2593
▁ste	-10.2618
▁brutal	-10.2626
ocial	-10.2643
disappointed	-10.2645
sh	-10.2647
▁provid	-10.2647
qu	-10.2663
Jay	-10.269
Muslim	-10.2694
▁notion	-10.2702
▁Per	-10.2713
▁NO	-10.2759
▁smil	-10.2768
evin	-10.2773
▁min	-10.2787
via	-10.2788
ger	-10.2788
br	-10.2809
eful	-10.2815
loves	-10.2827
▁ones	-10.2844
gay	-10.2859
▁Car	-10.288
hair	-10.2914
Globes	-10.2915
▁Ho	-10.2918
▁la	-10.2918
pundits	-10.293
ru	-10.2948
▁sto	-10.2948
▁cases	-10.2957
▁provide	-10.296
tz	-10.2985
▁den	-10.2996
▁bl	-10.3004
fish	-10.3017
lt	-10.3045
ndered	-10.3075
▁Ter	-10.3092
▁Wi	-10.3114
▁fan	-10.3119
ner	-10.3145
▁par	-10.3147
osh	-10.3183
▁assistan	-10.3193
▁reporters	-10.3198
▁Bee	-10.323
▁violate	-10.3248
▁count	-10.3254
16	-10.326
ill	-10.3261
its	-10.3272
▁Ver	-10.3295
▁comp	-10.3302
▁met	-10.3303
ock	-10.3306
▁elect	-10.3336
rd	-10.3343
ara	-10.3356
▁shar	-10.3377
▁Bri	-10.3393
land	-10.3397
ew	-10.3399
▁unite	-10.3421
▁tap	-10.3432
▁refuse	-10.3437
▁Kath	-10.3449
▁Les	-10.3468
her	-10.3471
je	-10.3498
Wa	-10.3539
ence	-10.3544
ahil	-10.3546
▁pe	-10.3566
stories	-10.3582
▁assum	-10.3589
ned	-10.3589
you	-10.3595
hed	-10.3602
▁usual	-10.3615
point	-10.3626
▁magic	-10.3627
eir	-10.3628
work	-10.3647
▁hero	-10.3647
trump	-10.3654
iss	-10.3655
aplan	-10.3669
iant	-10.3688
izab	-10.3695
▁Heal	-10.3729
▁excite	-10.3733
mo	-10.377
▁slight	-10.3771
▁j	-10.3781
▁Mis	-10.3786
▁rec	-10.379
more	-10.3801
urrently	-10.3803
lor	-10.3806
like	-10.3819
▁Soci	-10.3826
ltimately	-10.3844
ood	-10.3861
▁forth	-10.3865
nders	-10.3895
Bass	-10.3917
Twitter	-10.3937
Star	-10.3945
▁Pe	-10.3957
try	-10.3963
▁whi	-10.3964
Hillary	-10.3969
eligi	-10.3991
ari	-10.3996
▁brav	-10.4017
▁broke	-10.4023
▁kn	-10.4052
▁va	-10.4059
▁See	-10.407
Kelly	-10.4082
ether	-10.4084
ha	-10.4093
think	-10.4096
Cruz	-10.4098
face	-10.4101
walk	-10.4102
Im	-10.4107
system	-10.411
▁select	-10.411
working	-10.4111
▁surprising	-10.4113
Mike	-10.4116
partisan	-10.4117
que	-10.4119
&	-10.412
spread	-10.4136
birth	-10.4141
Since	-10.4142
TV	-10.4143
gravity	-10.4144
Science	-10.4146
SC	-10.4151
delegates	-10.4152
HRC	-10.4152
NRA	-10.4154
Ben	-10.4156
phone	-10.4157
▁miss	-10.416
Kim	-10.416
well	-10.4162
▁eat	-10.4163
mark	-10.4164
Now	-10.4167
▁counte	-10.4185
Never	-10.4186
ens	-10.4188
conduct	-10.4192
▁Inde	-10.4192
direct	-10.4193
▁super	-10.4195
Can	-10.421
extreme	-10.4211
▁Pi	-10.4213
▁involv	-10.4214
Don	-10.4216
▁Islam	-10.4224
ball	-10.4242
friends	-10.4243
city	-10.4249
ana	-10.4261
series	-10.4264
rew	-10.4281
tional	-10.4282
mine	-10.4283
▁norm	-10.4298
There	-10.4298
▁pose	-10.4311
▁comple	-10.4324
▁Ra	-10.4337
▁apart	-10.4342
act	-10.435
▁hop	-10.4351
▁senator	-10.4356
▁ru	-10.4357
▁Game	-10.4367
▁Indian	-10.4373
▁apologiz	-10.4376
▁mi	-10.4376
▁opponent	-10.4378
▁diagram	-10.4378
▁Iranian	-10.4382
▁VMA	-10.4383
take	-10.4384
▁program	-10.4386
▁terrorist	-10.4386
▁decade	-10.439
▁lab	-10.4392
fle	-10.4392
▁politician	-10.4395
▁rival	-10.4395
▁estimate	-10.4396
▁Olympic	-10.4399
▁dream	-10.44
▁stereotype	-10.4402
▁accusation	-10.4405
▁delegate	-10.4407
▁objection	-10.4408
nforce	-10.4412
▁amount	-10.4421
eye	-10.4444
reports	-10.4464
▁custom	-10.4467
▁produce	-10.4474
▁Ad	-10.4475
irport	-10.4476
ti	-10.4483
▁Jami	-10.4507
▁denie	-10.4512
sitive	-10.4513
Heer	-10.452
▁attac	-10.4532
low	-10.4537
▁drive	-10.4546
▁supporter	-10.4553
▁terror	-10.456
▁airport	-10.4568
veral	-10.4575
▁concern	-10.4577
ord	-10.4579
NA	-10.4581
▁trouble	-10.4586
▁inevitabl	-10.4587
▁emphasize	-10.4593
▁successful	-10.4596
▁link	-10.4597
▁stick	-10.4601
▁definit	-10.4605
▁disagree	-10.4608
▁stands	-10.4609
▁spec	-10.4611
OW	-10.4616
ecretary	-10.4619
hate	-10.4619
▁human	-10.4619
▁chose	-10.4622
▁simpl	-10.4623
▁Journal	-10.463
magine	-10.463
▁univers	-10.4632
▁Though	-10.4634
▁televis	-10.4634
▁strange	-10.4635
▁restrict	-10.4637
Brendan	-10.4637
▁Similar	-10.4637
BetteMidler	-10.4637
mattyglesias	-10.4637
▁Angeles	-10.4637
▁Boykin	-10.4637
▁Chicago	-10.4637
▁Executive	-10.4637
▁Grossman	-10.4637
▁Humayun	-10.4637
▁Hurricane	-10.4637
▁Medium	-10.4637
▁Romney	-10.4637
▁Sotomayor	-10.4637
▁Thrones	-10.4637
▁Tumblr	-10.4637
▁accomplish	-10.4637
▁advocacy	-10.4637
▁billionaire	-10.4637
▁ceremony	-10.4637
▁circulating	-10.4637
▁colonialism	-10.4637
▁craft	-10.4637
▁fantasy	-10.4637
▁frontrunner	-10.4637
▁hydro	-10.4637
▁illustrate	-10.4637
▁indulge	-10.4637
▁infamous	-10.4637
▁manifest	-10.4637
▁marriage	-10.4637
▁narrow	-10.4637
▁navigat	-10.4637
▁occasion	-10.4637
▁perspective	-10.4637
▁prejudic	-10.4637
▁presidency	-10.4637
▁prestigious	-10.4637
▁purchas	-10.4637
▁residents	-10.4637
▁schedul	-10.4637
▁scrutiny	-10.4637
▁suspicious	-10.4637
▁triumph	-10.4637
Cameron	-10.4637
Samaha	-10.4637
▁Jordan	-10.4637
▁confront	-10.4637
▁encounter	-10.4637
▁incumbent	-10.4637
▁machine	-10.4637
▁Further	-10.4637
▁Gatiss	-10.4637
▁Nieto	-10.4637
▁belief	-10.4637
▁crisis	-10.4637
▁crowd	-10.4637
▁ironic	-10.4637
▁sentiment	-10.4637
▁stretch	-10.4637
▁vocal	-10.4637
hibit	-10.4637
▁permanent	-10.4637
▁tomorrow	-10.4637
AmericaFerrera	-10.4637
NBA	-10.4637
▁aesthetic	-10.4637
▁bathroom	-10.4637
▁strength	-10.4637
undercard	-10.4637
▁daughter	-10.4637
▁horrible	-10.4637
▁sweet	-10.4637
▁Cotton	-10.4637
▁World	-10.4637
▁boycott	-10.4637
▁iframe	-10.4637
▁colleague	-10.4637
SenSanders	-10.4637
▁ticket	-10.4637
▁parody	-10.4638
▁apology	-10.4638
▁offense	-10.4638
▁sneeze	-10.4638
▁zero	-10.4638
▁measure	-10.4638
▁agenda	-10.4638
▁Mitchell	-10.4638
▁request	-10.4638
▁prices	-10.4638
▁reinforce	-10.4638
▁eager	-10.4638
▁Jeff	-10.4638
▁essence	-10.4638
▁Russia	-10.4638
▁vicious	-10.4638
▁ACT	-10.4638
▁audition	-10.4638
FoxNews	-10.4638
▁excuse	-10.4638
▁route	-10.4638
▁McCain	-10.4638
▁Moines	-10.4638
▁shape	-10.4638
BarackObama	-10.4638
Smile	-10.4638
▁split	-10.4638
▁humiliation	-10.4638
▁passenger	-10.4638
▁superior	-10.4638
▁contentious	-10.4638
▁vessel	-10.4638
▁dishonest	-10.4638
▁Office	-10.4638
Write	-10.4638
▁Nancy	-10.4638
▁militia	-10.4638
capsul	-10.4638
▁Brutalism	-10.4638
▁frustration	-10.4638
GOPdebate	-10.4638
▁Communications	-10.4638
provoke	-10.4638
▁fandom	-10.4638
▁Neides	-10.4638
▁patien	-10.4638
▁Gutman	-10.4638
ppets	-10.4638
▁parliament	-10.4638
▁restrictions	-10.4638
▁recruitment	-10.4638
▁replies	-10.4638
▁Lemon	-10.4638
▁repair	-10.4639
▁backlog	-10.4639
▁ET	-10.4639
▁escort	-10.4639
▁etc	-10.4639
▁unpredictable	-10.4639
▁$3	-10.4639
▁extensive	-10.4639
▁drug	-10.4639
▁dictator	-10.4639
▁grants	-10.4639
▁regard	-10.4639
▁disrupt	-10.4639
orbit	-10.4639
▁label	-10.4639
▁Google	-10.4639
▁flash	-10.4639
▁Tonight	-10.464
▁obtain	-10.464
▁horrifying	-10.464
▁brown	-10.464
▁tiny	-10.464
▁Obamacare	-10.464
▁demonstrators	-10.464
Hannity	-10.464
▁Spain	-10.464
▁Wolf	-10.464
▁wealth	-10.464
▁hotel	-10.464
▁silence	-10.464
▁folk	-10.464
▁dark	-10.4641
▁frantic	-10.4641
▁tube	-10.4641
HB	-10.4641
▁Island	-10.4641
kward	-10.4641
▁indict	-10.4642
▁Carroll	-10.4642
negotiations	-10.4642
▁reject	-10.4642
anchor	-10.4642
▁Coast	-10.4642
▁Arif	-10.4642
▁industry	-10.4642
▁investment	-10.4642
▁continually	-10.4642
▁safety	-10.4642
▁defendant	-10.4642
misunderstanding	-10.4643
▁patriot	-10.4643
▁grew	-10.4643
▁cheer	-10.4643
▁perception	-10.4643
▁diverse	-10.4643
▁memory	-10.4643
Noah	-10.4644
▁setback	-10.4644
▁click	-10.4644
▁nude	-10.4644
IL	-10.4644
▁element	-10.4644
▁Politico	-10.4644
▁DON	-10.4644
▁toughness	-10.4644
▁violation	-10.4645
▁Jacobson	-10.4645
▁growth	-10.4645
▁humiliated	-10.4645
▁solid	-10.4645
▁representative	-10.4646
ranscript	-10.4646
buster	-10.4646
Reince	-10.4647
▁scale	-10.4647
▁sorry	-10.4647
▁famous	-10.4648
▁Evan	-10.4648
apore	-10.4648
▁minister	-10.4649
▁rail	-10.465
▁affirm	-10.4651
▁contain	-10.4651
▁scary	-10.4651
▁coordinated	-10.4653
▁promotion	-10.4653
fresh	-10.4654
▁laughed	-10.4654
▁proper	-10.4654
▁south	-10.4654
ingrich	-10.4654
▁innocent	-10.4655
▁broader	-10.4655
▁eco	-10.4655
▁Rather	-10.4656
▁dub	-10.4657
▁Back	-10.4658
▁Association	-10.4658
▁arrest	-10.4659
▁secretary	-10.466
▁stray	-10.466
▁remove	-10.466
▁Thank	-10.4661
▁deeper	-10.4661
▁firm	-10.4661
▁explainer	-10.4662
▁anyway	-10.4663
▁alienate	-10.4663
▁demonstration	-10.4663
NWS	-10.4663
▁moral	-10.4664
nual	-10.4666
▁spur	-10.4666
▁canceled	-10.4666
▁ensu	-10.4667
▁anybody	-10.4669
▁Vol	-10.4669
▁connect	-10.4671
▁code	-10.4671
▁build	-10.4671
Heroes	-10.4672
▁unless	-10.4672
wardly	-10.4673
▁fift	-10.4674
harsh	-10.4674
▁obsess	-10.4674
Jesse	-10.4674
▁bigot	-10.4675
▁embed	-10.4676
▁girl	-10.4676
essen	-10.4676
▁signal	-10.4676
▁Human	-10.4676
▁flow	-10.4677
▁combin	-10.4678
▁witness	-10.4678
▁comic	-10.4679
▁lurk	-10.4681
▁divide	-10.4683
▁Alex	-10.4685
▁minimal	-10.4687
▁unf	-10.4687
▁Ward	-10.4687
▁sick	-10.4687
▁preference	-10.4688
▁successfully	-10.4688
▁inevitable	-10.4688
▁Jew	-10.469
Nice	-10.469
Full	-10.4691
▁vacan	-10.4692
▁server	-10.4693
▁produced	-10.4694
▁credit	-10.4696
Albert	-10.4697
▁Matthews	-10.4698
▁consultants	-10.4698
▁Head	-10.4701
▁punch	-10.4701
▁elite	-10.4701
lease	-10.4703
▁eyes	-10.4704
▁linked	-10.4704
▁defenders	-10.4706
▁bomb	-10.4707
fic	-10.4708
▁determin	-10.4711
▁Trans	-10.4716
▁terrorism	-10.4717
▁presumpti	-10.4717
▁dive	-10.4718
▁topic	-10.4719
▁stress	-10.472
rapist	-10.4721
▁swing	-10.4721
▁structur	-10.4722
companie	-10.4723
Real	-10.4723
▁pain	-10.4726
▁Gen	-10.4727
▁indicate	-10.4728
▁theory	-10.4728
▁thereof	-10.4728
▁regi	-10.4728
▁foundation	-10.4729
▁badge	-10.4732
▁unusually	-10.4734
▁AF	-10.4735
▁Historical	-10.474
▁financ	-10.4741
kip	-10.4746
CH	-10.4746
▁Eat	-10.4747
▁younger	-10.4747
▁script	-10.4752
▁attracti	-10.4754
▁NJ	-10.4756
Me	-10.4757
▁bag	-10.4758
▁north	-10.4759
▁enter	-10.476
▁slid	-10.4762
▁cons	-10.4765
▁smart	-10.4765
▁60	-10.4766
▁NPR	-10.4766
▁chanted	-10.4767
UR	-10.4767
▁Adams	-10.4768
▁Danny	-10.4768
▁Perdue	-10.4768
▁Smith	-10.4769
▁thugs	-10.4769
▁dust	-10.4769
▁ya	-10.4769
▁Hamilton	-10.4769
▁function	-10.477
▁disgusting	-10.477
▁society	-10.477
▁planting	-10.4771
▁Tweet	-10.4771
▁Brown	-10.4771
▁petition	-10.4773
▁George	-10.4774
▁marketing	-10.4781
▁user	-10.4784
▁brows	-10.4785
▁requires	-10.4786
Andrew	-10.4786
▁shout	-10.479
▁larger	-10.4794
▁trolls	-10.4794
▁sn	-10.4795
▁fair	-10.4795
▁Fr	-10.4796
▁translate	-10.4799
▁passing	-10.4804
▁blu	-10.4805
▁workers	-10.4808
▁customer	-10.481
▁Get	-10.4812
▁forums	-10.4813
▁provider	-10.4816
▁box	-10.4818
Generally	-10.4819
▁mocking	-10.4827
Tu	-10.4831
▁dig	-10.4834
▁Natur	-10.4834
ization	-10.4835
Ew	-10.4842
▁candida	-10.4846
▁agreed	-10.4857
tical	-10.4859
▁Philly	-10.4859
retrial	-10.4861
▁Ca	-10.4862
ound	-10.4863
icks	-10.4864
▁Fare	-10.4865
▁exit	-10.4867
▁Hum	-10.4869
load	-10.4877
▁blow	-10.4881
▁afterward	-10.4886
▁objections	-10.4886
rry	-10.4889
castle	-10.489
iz	-10.4896
Dear	-10.4898
olf	-10.49
▁warm	-10.4901
▁scienti	-10.4901
▁programs	-10.4902
▁VMAs	-10.4903
▁diagrams	-10.4903
▁opponents	-10.4903
▁Iranians	-10.4904
▁amounts	-10.4904
▁grace	-10.4904
echnology	-10.4906
▁shore	-10.4907
tim	-10.4908
Your	-10.4908
▁park	-10.4913
▁Indians	-10.4918
▁poorly	-10.4922
▁thinks	-10.4931
▁pri	-10.4933
▁Accus	-10.4935
▁Amaz	-10.4935
▁entr	-10.4938
▁staffer	-10.4953
▁subse	-10.4953
▁casca	-10.4955
▁odds	-10.4957
erson	-10.4958
onald	-10.4967
nstitut	-10.4968
au	-10.4968
OS	-10.4981
▁regula	-10.4983
Frost	-10.4984
▁wondering	-10.4986
▁root	-10.4992
▁Po	-10.4992
▁Hav	-10.5
▁!!	-10.5002
▁grounds	-10.5005
▁roll	-10.5007
▁Ri	-10.5015
▁mis	-10.5019
▁terrorists	-10.5029
▁Down	-10.503
▁joked	-10.5034
▁fill	-10.5037
▁Wait	-10.5037
unch	-10.5038
iju	-10.5042
▁dep	-10.5053
orizon	-10.506
▁emo	-10.5072
▁counts	-10.5078
▁ad	-10.5094
▁conduct	-10.5104
RAN	-10.5108
▁chants	-10.5109
▁!	-10.5114
▁organizations	-10.5114
real	-10.5127
▁sentences	-10.5128
▁loses	-10.5134
▁Bur	-10.5138
▁gods	-10.5141
ado	-10.5142
33	-10.5146
”)	-10.5149
alm	-10.5151
▁Bat	-10.5158
CD	-10.5163
mission	-10.5168
▁attract	-10.517
▁trolling	-10.5172
▁tracks	-10.5173
orning	-10.5179
▁demo	-10.5184
trolling	-10.5186
▁partisan	-10.5186
▁boy	-10.5196
apur	-10.52
Po	-10.5201
▁describ	-10.5205
▁photos	-10.5212
▁immun	-10.5225
ware	-10.5227
ber	-10.5227
lu	-10.523
appointing	-10.5233
what	-10.5235
▁Sat	-10.5236
qui	-10.5238
▁bro	-10.525
ps	-10.5253
▁competit	-10.5255
▁save	-10.5256
ents	-10.5256
▁poster	-10.5256
ackle	-10.5266
come	-10.5276
itch	-10.5277
▁du	-10.5299
▁grad	-10.5304
▁trail	-10.5311
▁trip	-10.5312
grad	-10.5313
▁tool	-10.5313
▁feminists	-10.5317
▁individuals	-10.532
ties	-10.5327
▁disa	-10.5376
punished	-10.5382
shit	-10.5416
▁regions	-10.5422
nkers	-10.5425
ically	-10.5432
ustin	-10.5435
▁beca	-10.5446
hill	-10.5463
▁gi	-10.5484
▁lock	-10.5486
▁stated	-10.5492
ney	-10.5494
alia	-10.5494
▁Gre	-10.5497
▁Pro	-10.5506
▁Har	-10.5519
ad	-10.5526
▁Don	-10.5529
▁march	-10.5536
ons	-10.5536
▁tr	-10.5541
▁str	-10.5543
▁Juan	-10.5549
NT	-10.5553
eak	-10.5554
used	-10.5562
pp	-10.5563
▁interviews	-10.5563
Man	-10.5566
▁collect	-10.557
ski	-10.559
▁mu	-10.5594
pelling	-10.5599
▁AP	-10.5614
▁roles	-10.5618
▁messages	-10.5628
▁platforms	-10.5629
▁situations	-10.5629
▁excit	-10.5636
▁mine	-10.5639
ving	-10.5646
▁techn	-10.5653
▁Will	-10.5655
▁$5.	-10.5657
▁Su	-10.5671
estic	-10.5679
▁songs	-10.57
▁spr	-10.57
PP	-10.571
tired	-10.5715
▁ju	-10.5722
▁cross	-10.5738
iler	-10.5747
▁teams	-10.5752
ied	-10.5764
▁sai	-10.5774
signed	-10.5778
▁nor	-10.5787
▁reduc	-10.5789
▁assume	-10.581
▁corp	-10.5818
ears	-10.584
ib	-10.5847
▁tape	-10.5854
▁quot	-10.586
of	-10.5864
▁rare	-10.5871
aking	-10.5872
24	-10.5876
▁ta	-10.5891
▁lying	-10.5896
20	-10.5913
▁flo	-10.5915
see	-10.5923
▁const	-10.5924
ki	-10.593
Joel	-10.5957
▁Wil	-10.5958
lation	-10.5959
jo	-10.5969
▁engag	-10.5978
ile	-10.5981
ef	-10.5988
▁ah	-10.5992
RS	-10.6004
ique	-10.6021
counted	-10.6025
ded	-10.6037
▁Perry	-10.6038
eau	-10.6038
▁Bu	-10.6048
ries	-10.6072
ba	-10.6084
larity	-10.6091
asket	-10.6113
ani	-10.6128
▁scar	-10.6132
wave	-10.6142
challenging	-10.6161
wise	-10.6168
▁des	-10.6174
Is	-10.6179
nked	-10.6188
▁Dea	-10.6192
them	-10.6194
▁para	-10.6213
▁hall	-10.6214
▁aut	-10.6218
▁ties	-10.6225
▁supporting	-10.6233
▁blam	-10.6242
▁Gar	-10.6252
lated	-10.6258
uran	-10.6267
▁tol	-10.6267
▁minds	-10.628
hia	-10.6296
▁Nort	-10.6306
tron	-10.6307
ounding	-10.6317
▁ob	-10.6318
▁discussi	-10.6329
▁confusi	-10.6374
earce	-10.6392
▁statistic	-10.6395
▁clo	-10.6405
vin	-10.643
▁’8	-10.6436
wish	-10.6447
▁bail	-10.6448
04	-10.6464
▁pot	-10.6466
LL	-10.6483
ox	-10.6486
if	-10.6507
▁mal	-10.6511
▁75	-10.6511
▁Af	-10.6516
▁que	-10.6523
▁kno	-10.6528
▁pres	-10.6534
▁numbers	-10.6539
upport	-10.6554
Stand	-10.6563
ze	-10.6573
▁anticipat	-10.6593
@	-10.6602
▁Ja	-10.6614
▁aim	-10.6632
6	-10.6644
mma	-10.6654
▁postur	-10.6662
▁loca	-10.6667
rough	-10.667
▁char	-10.6671
ola	-10.6682
▁date	-10.6709
graphic	-10.6711
▁asks	-10.672
ray	-10.6731
▁Barr	-10.6757
repar	-10.6784
▁Bas	-10.6819
▁issu	-10.6822
▁Vic	-10.6825
▁condemn	-10.6827
▁cite	-10.6828
ngry	-10.6833
▁creati	-10.6833
▁nominees	-10.6842
Not	-10.6842
▁magical	-10.6846
any	-10.6847
▁sur	-10.6851
ient	-10.6861
nick	-10.6864
▁moder	-10.6865
▁citizen	-10.6875
early	-10.688
▁Va	-10.6905
▁vari	-10.6907
ud	-10.6917
▁Inter	-10.692
▁suit	-10.6943
▁depend	-10.6943
▁ethnic	-10.6949
becomes	-10.6956
tro	-10.6957
Sh	-10.6995
▁KA	-10.7
eeling	-10.7002
ered	-10.7014
▁Ay	-10.7016
isn	-10.7037
▁Howe	-10.704
za	-10.7062
ady	-10.7069
▁starve	-10.7084
▁seiz	-10.7085
Ma	-10.71
▁201	-10.7109
ag	-10.7148
▁ac	-10.7149
▁Bo	-10.715
aries	-10.7156
▁dom	-10.7158
▁approximat	-10.717
▁highlight	-10.7172
bor	-10.7216
abin	-10.7217
▁Arab	-10.7239
▁clos	-10.7253
voted	-10.7274
egg	-10.7282
ric	-10.7292
um	-10.7299
▁Au	-10.7309
ddam	-10.7336
room	-10.7342
force	-10.7346
rity	-10.7349
▁Kat	-10.7384
▁fit	-10.7387
▁suc	-10.7413
▁seize	-10.7439
ibility	-10.7442
cing	-10.7475
▁starv	-10.7476
▁critic	-10.7498
ral	-10.7511
les	-10.7515
ig	-10.752
ership	-10.7543
▁sni	-10.7544
con	-10.7552
▁sad	-10.7555
nger	-10.7585
▁jo	-10.7589
ivan	-10.7591
▁chi	-10.7598
▁ending	-10.7599
G	-10.7607
round	-10.762
oo	-10.7639
umpf	-10.7645
▁bra	-10.7656
▁sm	-10.7677
lia	-10.7685
rump	-10.7689
matt	-10.7698
erry	-10.7706
erailing	-10.7759
heck	-10.7763
▁Cent	-10.7771
Her	-10.7779
▁tra	-10.7785
identifie	-10.7801
ader	-10.783
pot	-10.7837
▁recall	-10.784
vel	-10.784
aps	-10.7845
▁plu	-10.7849
▁doubl	-10.7874
▁pan	-10.7901
ored	-10.7932
▁conta	-10.7936
gue	-10.7944
▁addition	-10.7968
gain	-10.7992
▁abus	-10.8013
▁alienat	-10.8028
yo	-10.8063
lein	-10.8087
▁conc	-10.8107
U	-10.8117
▁observ	-10.813
had	-10.8138
▁res	-10.8145
▁Bad	-10.8166
▁quo	-10.8171
▁ass	-10.8187
witch	-10.8233
▁bruis	-10.8246
tures	-10.8265
▁incom	-10.8268
TO	-10.8288
ank	-10.8291
▁Tur	-10.8301
anita	-10.8303
▁viewer	-10.8304
oke	-10.8308
zen	-10.8309
▁Ju	-10.8312
▁prep	-10.8329
will	-10.8348
ssel	-10.8365
#	-10.839
▁squ	-10.8393
88	-10.8406
▁participa	-10.8425
Gu	-10.8426
Bob	-10.8442
isher	-10.8459
cost	-10.8482
TH	-10.8482
March	-10.8502
ays	-10.8503
▁Spec	-10.8525
metime	-10.8526
nty	-10.8528
▁spo	-10.854
▁Progress	-10.8548
performs	-10.8553
into	-10.8565
▁pu	-10.8575
han	-10.8578
▁featur	-10.8587
▁cr	-10.8608
▁Mos	-10.8619
would	-10.8623
mper	-10.8629
perative	-10.8631
▁Stop	-10.8632
ning	-10.8635
▁cor	-10.8647
nut	-10.8671
▁bur	-10.8673
Ho	-10.869
ap	-10.8706
oc	-10.8723
Dem	-10.8731
but	-10.874
▁unlike	-10.8742
▁Si	-10.8748
ject	-10.876
burn	-10.8765
ung	-10.877
mar	-10.8774
V	-10.8792
lash	-10.8793
▁mod	-10.8798
Re	-10.8798
▁lay	-10.8818
▁Wa	-10.8819
atson	-10.8824
lov	-10.8824
▁mid	-10.8825
▁historic	-10.8828
oes	-10.883
rises	-10.8839
ible	-10.8854
sea	-10.8879
here	-10.8882
yl	-10.8889
▁bed	-10.891
bby	-10.8913
▁vir	-10.8918
report	-10.8919
den	-10.8928
ek	-10.8936
rter	-10.8942
▁materia	-10.8945
erous	-10.8946
they	-10.8966
▁ti	-10.8969
▁y	-10.898
▁coll	-10.8981
ward	-10.8992
▁urg	-10.8996
even	-10.9009
under	-10.901
kk	-10.9011
Press	-10.9012
▁Br	-10.9023
use	-10.9024
quis	-10.9025
ology	-10.9026
place	-10.9027
▁grass	-10.9032
night	-10.9039
Kasich	-10.904
great	-10.9042
Phil	-10.9063
col	-10.9064
Pocahontas	-10.9067
Rezaian	-10.9069
ority	-10.9069
rance	-10.9076
Wait	-10.9077
Tian	-10.9077
Amen	-10.9082
Jacobs	-10.9086
Gov	-10.909
National	-10.9091
▁requir	-10.9093
tweet	-10.9096
watch	-10.9099
Ari	-10.9102
Kardashian	-10.9107
positive	-10.911
▁Tal	-10.9111
John	-10.9115
remain	-10.9115
put	-10.9116
Breitbart	-10.912
ground	-10.912
cle	-10.9122
draw	-10.9122
host	-10.9126
protesters	-10.9129
Terris	-10.913
Holthaus	-10.9132
Ferguson	-10.9132
Bowl	-10.9132
Central	-10.9133
Barbie	-10.9133
nothing	-10.9135
BuzzFeed	-10.9135
casca	-10.9141
Josh	-10.9142
Eric	-10.9142
culture	-10.9144
remember	-10.9145
birther	-10.9146
ABC	-10.9147
Bush	-10.9147
em	-10.9151
storm	-10.9153
wide	-10.9158
progressive	-10.9166
ncy	-10.9172
jokes	-10.9172
broad	-10.9175
▁Hi	-10.9191
CNN	-10.9192
Dep	-10.9193
ects	-10.9199
▁item	-10.9201
foot	-10.9207
content	-10.9209
With	-10.9224
nts	-10.923
ums	-10.9231
guard	-10.9236
One	-10.9236
break	-10.9238
rare	-10.9239
tial	-10.9241
name	-10.9248
rais	-10.9251
got	-10.9257
Un	-10.9258
boy	-10.9262
gets	-10.9264
wiz	-10.9265
ott	-10.927
ulation	-10.9274
fluent	-10.9279
nch	-10.9288
▁40	-10.9311
document	-10.9312
Howe	-10.932
▁bas	-10.9327
ctors	-10.933
▁lie	-10.9337
ff	-10.9347
rk	-10.9355
anned	-10.9374
ected	-10.9375
ides	-10.9377
▁constitution	-10.9378
funny	-10.9386
▁presen	-10.9389
▁centr	-10.939
▁consequence	-10.9396
▁minute	-10.9398
▁employee	-10.9398
!!	-10.9399
▁allegation	-10.9401
▁value	-10.9413
▁month	-10.9414
▁circle	-10.9414
▁appearance	-10.9416
fair	-10.9419
easy	-10.9438
▁approv	-10.9442
tted	-10.9447
▁conf	-10.9454
PD	-10.9457
▁exclu	-10.9462
▁repeat	-10.9464
▁procedur	-10.9466
eteorologists	-10.947
▁grow	-10.9472
dministration	-10.9472
▁activist	-10.9475
▁actor	-10.9488
nc	-10.949
social	-10.9508
▁compan	-10.951
▁imagin	-10.9513
▁explo	-10.9517
pies	-10.9521
▁serv	-10.9525
specially	-10.9529
▁importan	-10.953
mination	-10.9534
unny	-10.9541
On	-10.9546
promise	-10.9553
▁activis	-10.9558
Vi	-10.9566
▁feminis	-10.9567
▁Ric	-10.957
▁limit	-10.9572
▁troll	-10.9572
▁forum	-10.9574
top	-10.9578
▁convict	-10.9578
▁flood	-10.958
▁grab	-10.9581
▁Year	-10.9582
▁communicat	-10.9583
▁India	-10.9585
▁officer	-10.9586
▁protester	-10.9586
▁surprise	-10.9587
fan	-10.9587
▁prosecut	-10.9588
▁frame	-10.959
▁blunt	-10.959
▁sudden	-10.9592
gab	-10.9605
WS	-10.9608
lled	-10.9609
▁Antarctic	-10.9612
▁endless	-10.9616
▁invest	-10.9618
▁frequent	-10.9625
▁empha	-10.9625
leep	-10.9625
udge	-10.9626
lizzard	-10.9627
ensible	-10.9627
▁remo	-10.9628
graph	-10.9628
▁!!!!	-10.9629
ertificate	-10.9631
arroll	-10.9632
itizens	-10.9632
comfortable	-10.9632
▁econom	-10.9632
▁differ	-10.9633
▁establish	-10.9634
doub	-10.9634
▁construct	-10.9634
▁recogni	-10.9634
▁ar	-10.9634
▁Brutal	-10.9634
ritics	-10.9635
▁progress	-10.9636
elega	-10.9636
roducti	-10.9637
scribe	-10.9637
lude	-10.9637
Braddock	-10.9637
akaria	-10.9637
uinnipiac	-10.9637
▁affiliat	-10.9637
▁reincarnat	-10.9637
▁decisive	-10.9637
▁diplomatic	-10.9637
▁disrespect	-10.9637
▁distinguish	-10.9637
▁encompass	-10.9637
▁equivalen	-10.9637
▁evolution	-10.9637
▁gentlem	-10.9637
▁obstructionist	-10.9637
▁recommend	-10.9637
▁underestimat	-10.9637
AVAETC	-10.9637
Almontaser	-10.9637
BREAKING	-10.9637
Becket	-10.9637
Behavior	-10.9637
Beyonce	-10.9637
ClevelandClinic	-10.9637
Fernholz	-10.9637
Fleischer	-10.9637
FrankLuntz	-10.9637
FreeMilo	-10.9637
Freedhoff	-10.9637
Fugelsang	-10.9637
FullFrontalSamB	-10.9637
Graphics	-10.9637
Harwood	-10.9637
HowardKurtz	-10.9637
IStandWithSimone	-10.9637
Interactive	-10.9637
JenGranholm	-10.9637
LOLGOP	-10.9637
Levinovitz	-10.9637
Library	-10.9637
Mackowiak	-10.9637
Markgatiss	-10.9637
MichelleFields	-10.9637
Nattalyee	-10.9637
Nerdland	-10.9637
OxfordWords	-10.9637
PayPal	-10.9637
Pethokoukis	-10.9637
Rodriguez	-10.9637
Scaachi	-10.9637
Snowmageddon	-10.9637
VOTERS	-10.9637
aptiste	-10.9637
believable	-10.9637
chleifer	-10.9637
ebenedetti	-10.9637
ercurypixel	-10.9637
exualjumanji	-10.9637
fficient	-10.9637
ginalou	-10.9637
glesias	-10.9637
ilpatrick	-10.9637
jacobson	-10.9637
jelani	-10.9637
odhoretz	-10.9637
rolandsmartin	-10.9637
ryanlcooper	-10.9637
screencapped	-10.9637
southpaw	-10.9637
toddstarnes	-10.9637
uckerberg	-10.9637
é	-10.9637
▁Bannon	-10.9637
▁Brazil	-10.9637
▁California	-10.9637
▁Conservative	-10.9637
▁Delaware	-10.9637
▁DuVernay	-10.9637
▁Epstein	-10.9637
▁Express	-10.9637
▁Gaffney	-10.9637
▁Guardian	-10.9637
▁Hawaii	-10.9637
▁Hinkeldey	-10.9637
▁Hinog	-10.9637
▁Madigan	-10.9637
▁Millennial	-10.9637
▁Murphy	-10.9637
▁Neville	-10.9637
▁Nichols	-10.9637
▁Raisman	-10.9637
▁Ramakrishnan	-10.9637
▁Stachowski	-10.9637
▁Wisconsin	-10.9637
▁ambitious	-10.9637
▁amendment	-10.9637
▁architecture	-10.9637
▁assassinati	-10.9637
▁bimbo	-10.9637
▁conflict	-10.9637
▁conspiracy	-10.9637
▁cucumber	-10.9637
▁cyclone	-10.9637
▁demagogue	-10.9637
▁deployed	-10.9637
▁deregulated	-10.9637
▁disingenuous	-10.9637
▁enabling	-10.9637
▁exaggerated	-10.9637
▁familiar	-10.9637
▁fanciful	-10.9637
▁fertility	-10.9637
▁forgotten	-10.9637
▁genuine	-10.9637
▁goddesses	-10.9637
▁guarantee	-10.9637
▁harmonica	-10.9637
▁holiday	-10.9637
▁hypocri	-10.9637
▁inferior	-10.9637
▁integrity	-10.9637
▁interpretation	-10.9637
▁judgment	-10.9637
▁library	-10.9637
▁millennials	-10.9637
▁miscarriage	-10.9637
▁misguided	-10.9637
▁narrative	-10.9637
▁neighbors	-10.9637
▁neutral	-10.9637
▁nuclear	-10.9637
▁obligations	-10.9637
▁obscure	-10.9637
▁obstructionism	-10.9637
▁occupation	-10.9637
▁pleasant	-10.9637
▁plummet	-10.9637
▁pneumonia	-10.9637
▁powerhouse	-10.9637
▁princip	-10.9637
▁pseudo	-10.9637
▁refugees	-10.9637
▁retracted	-10.9637
▁ritual	-10.9637
▁struggle	-10.9637
▁struggling	-10.9637
▁suburban	-10.9637
▁supremacists	-10.9637
▁swallow	-10.9637
▁symboliz	-10.9637
▁unapologetic	-10.9637
▁vehicle	-10.9637
▁verdict	-10.9637
Travis	-10.9637
plausible	-10.9637
▁Dorsey	-10.9637
▁compliment	-10.9637
▁denounc	-10.9637
▁filmmaker	-10.9637
▁govern	-10.9637
▁period	-10.9637
Breslin	-10.9637
Kessler	-10.9637
Modeled	-10.9637
Sarlin	-10.9637
Suehaila	-10.9637
Swirling	-10.9637
Thrush	-10.9637
▁Candidate	-10.9637
▁Clinic	-10.9637
▁Second	-10.9637
▁Toomey	-10.9637
▁credibility	-10.9637
▁embarrass	-10.9637
▁exempt	-10.9637
▁monitor	-10.9637
▁remix	-10.9637
▁suburbs	-10.9637
▁victories	-10.9637
Clemons	-10.9637
Daniel	-10.9637
DoloresHuerta	-10.9637
SusanSarandon	-10.9637
anzina	-10.9637
relevant	-10.9637
▁London	-10.9637
▁Simone	-10.9637
▁legislat	-10.9637
▁redundan	-10.9637
▁soldiers	-10.9637
Jealous	-10.9637
goldacre	-10.9637
▁detained	-10.9637
▁gymnast	-10.9637
▁journalism	-10.9637
▁skewed	-10.9637
▁tangent	-10.9637
▁victory	-10.9637
▁whistle	-10.9637
Graham	-10.9637
Legum	-10.9637
Laverne	-10.9637
uzzi	-10.9637
▁attitude	-10.9637
▁heritage	-10.9637
▁pattern	-10.9637
▁visual	-10.9637
eynep	-10.9637
knowledge	-10.9637
▁expensive	-10.9637
▁judicia	-10.9637
▁misogyn	-10.9637
▁stumble	-10.9637
DanielDenvir	-10.9637
adjustment	-10.9637
▁Caucus	-10.9637
▁ISIS	-10.9637
▁Springs	-10.9637
▁profound	-10.9638
penetra	-10.9638
rawley	-10.9638
▁Maryland	-10.9638
▁shirts	-10.9638
▁concentrat	-10.9638
▁deflect	-10.9638
▁divisive	-10.9638
▁pussy	-10.9638
▁regulators	-10.9638
▁superhero	-10.9638
oodruff	-10.9638
Fratto	-10.9638
blowers	-10.9638
▁Hitler	-10.9638
▁chang	-10.9638
▁entertain	-10.9638
▁marvel	-10.9638
▁rubio	-10.9638
▁succeeded	-10.9638
▁uniform	-10.9638
▁Divine	-10.9638
▁Representati	-10.9638
▁quarter	-10.9638
▁slurs	-10.9638
▁application	-10.9638
▁declaring	-10.9638
▁meltdown	-10.9638
offmann	-10.9638
uterus	-10.9638
Nyhan	-10.9638
▁ICC	-10.9638
▁innovati	-10.9638
convenient	-10.9638
▁gramma	-10.9638
▁Santana	-10.9638
▁strict	-10.9638
▁landscape	-10.9638
▁silent	-10.9638
lurrel	-10.9638
xico	-10.9638
Rosenberg	-10.9638
▁stripper	-10.9638
▁suffer	-10.9638
regressive	-10.9638
aitlin	-10.9638
cholar	-10.9638
recipi	-10.9638
▁rigged	-10.9638
▁tamper	-10.9638
▁mobil	-10.9638
royal	-10.9638
▁homophobi	-10.9638
▁Columb	-10.9638
▁married	-10.9638
broadcity	-10.9638
▁degree	-10.9638
▁implement	-10.9638
Joshua	-10.9638
rowley	-10.9638
abriel	-10.9638
▁gesture	-10.9638
▁beloved	-10.9638
inoco	-10.9638
▁photograph	-10.9638
▁widow	-10.9638
maniac	-10.9638
▁convinc	-10.9638
▁rambled	-10.9638
aelithe	-10.9638
▁Minist	-10.9638
PPact	-10.9638
▁splash	-10.9638
▁mortal	-10.9638
shadow	-10.9638
▁revolt	-10.9638
▁micro	-10.9638
▁club	-10.9638
▁Life	-10.9638
▁intense	-10.9638
▁sidebar	-10.9638
▁Martin	-10.9638
▁investigators	-10.9638
▁coincidence	-10.9638
▁impersonate	-10.9638
▁tangl	-10.9638
fortmyers	-10.9638
▁clause	-10.9638
▁Micro	-10.9638
▁Valley	-10.9638
▁YOU	-10.9638
▁combat	-10.9638
courage	-10.9638
discriminat	-10.9638
▁Northeast	-10.9638
▁Hawkins	-10.9638
▁existence	-10.9638
▁relax	-10.9638
▁unraveling	-10.9638
SCOTUS	-10.9638
▁Tuf	-10.9638
onfessore	-10.9638
▁Worse	-10.9638
▁worried	-10.9638
ub	-10.9638
Booker	-10.9638
▁shameful	-10.9638
▁Kansas	-10.9639
Lindsey	-10.9639
▁Garden	-10.9639
▁$9	-10.9639
▁capitalism	-10.9639
▁limb	-10.9639
ategor	-10.9639
▁descript	-10.9639
▁okay	-10.9639
▁selfie	-10.9639
▁belligerence	-10.9639
▁cooper	-10.9639
▁teeth	-10.9639
Brownstein	-10.9639
▁passage	-10.9639
beckman	-10.9639
▁Glazer	-10.9639
▁folded	-10.9639
▁District	-10.9639
▁Finney	-10.9639
▁ethnicities	-10.9639
▁enjoy	-10.9639
▁fatherless	-10.9639
▁revenue	-10.9639
REA	-10.9639
Alexander	-10.9639
▁layout	-10.9639
▁birthday	-10.9639
▁hatred	-10.9639
66	-10.9639
▁coalition	-10.9639
▁Louis	-10.964
daddy	-10.964
▁fairness	-10.964
▁channel	-10.964
Alyssa	-10.964
▁McC	-10.964
crim	-10.964
Yoni	-10.964
▁flak	-10.964
▁advice	-10.964
▁style	-10.964
▁vowed	-10.964
▁$1	-10.964
▁Medic	-10.964
▁breath	-10.964
▁scroll	-10.964
▁department	-10.964
▁error	-10.964
▁window	-10.964
▁prince	-10.964
▁photoshop	-10.964
▁contemp	-10.964
▁lightness	-10.964
▁practices	-10.964
▁starvation	-10.964
Wendy	-10.964
rkel	-10.9641
▁Haley	-10.9641
▁backfire	-10.9641
▁diag	-10.9641
▁punishment	-10.9641
▁investigation	-10.9641
▁exception	-10.9641
▁reliabl	-10.9641
▁download	-10.9641
▁participation	-10.9641
▁reapp	-10.9641
▁foster	-10.9641
▁Independent	-10.9641
▁impos	-10.9641
▁creditors	-10.9641
▁substantive	-10.9641
▁misleading	-10.9641
▁overturn	-10.9641
Masco	-10.9641
atanese	-10.9641
▁Stelter	-10.9642
▁latter	-10.9642
▁flip	-10.9642
▁satir	-10.9642
▁toilet	-10.9642
Olivia	-10.9642
▁Frontal	-10.9642
▁assembl	-10.9642
Hayes	-10.9642
▁roof	-10.9642
▁strangers	-10.9642
▁Through	-10.9642
Shaun	-10.9642
▁routin	-10.9642
▁straw	-10.9642
nasty	-10.9642
ticul	-10.9643
▁resistan	-10.9643
Club	-10.9643
onayne	-10.9643
▁trash	-10.9643
▁PER	-10.9643
▁Taxes	-10.9643
Nigel	-10.9643
Massey	-10.9643
▁wounded	-10.9644
▁contract	-10.9644
▁competitive	-10.9644
Farage	-10.9644
▁indictment	-10.9644
Judd	-10.9644
▁invitation	-10.9644
▁Kuran	-10.9644
▁pounds	-10.9644
▁stunning	-10.9644
▁crazy	-10.9645
Erickson	-10.9645
Jesus	-10.9645
▁transform	-10.9645
Perez	-10.9645
▁nurse	-10.9645
▁urbanized	-10.9645
▁gross	-10.9645
▁Thoughts	-10.9645
awz	-10.9646
▁acid	-10.9646
▁driveway	-10.9646
Boris	-10.9646
▁Backstage	-10.9646
▁recovery	-10.9646
▁knees	-10.9646
▁!!!!!	-10.9646
▁Someday	-10.9646
▁denial	-10.9646
▁token	-10.9646
▁Capt	-10.9647
▁airtime	-10.9647
▁ego	-10.9647
▁filter	-10.9647
foghorn	-10.9647
▁milit	-10.9647
▁silly	-10.9647
▁inspiration	-10.9647
▁Salman	-10.9647
▁Series	-10.9647
ancies	-10.9648
▁brother	-10.9648
▁villa	-10.9648
▁1991	-10.9648
▁flawed	-10.9648
▁invade	-10.9649
▁passion	-10.9649
▁Journalist	-10.9649
▁joints	-10.965
▁Klan	-10.965
▁admitted	-10.9651
▁Saman	-10.9651
atrick	-10.9651
ception	-10.9651
RY	-10.9651
▁1986	-10.9651
Melber	-10.9652
▁nightmar	-10.9652
▁Two	-10.9652
▁Libert	-10.9652
▁studies	-10.9653
Houle	-10.9653
▁lump	-10.9653
▁humanity	-10.9654
▁500	-10.9654
▁sensible	-10.9654
▁analog	-10.9655
▁victimiz	-10.9655
85	-10.9655
▁1200	-10.9656
▁Kier	-10.9656
▁parent	-10.9656
harper	-10.9656
▁talent	-10.9656
reactionaries	-10.9656
AY	-10.9656
▁Shore	-10.9656
arch	-10.9656
uthorit	-10.9656
▁soft	-10.9657
insane	-10.9657
burg	-10.9657
pro	-10.9658
▁Certainly	-10.9658
▁survivor	-10.9658
thology	-10.9658
Ruger	-10.9659
▁resolve	-10.9659
▁careless	-10.9659
▁noise	-10.9659
▁KK	-10.9659
▁UP	-10.966
▁Comment	-10.966
▁survive	-10.966
▁hostage	-10.9661
▁screeners	-10.9661
Fallows	-10.9661
▁favorable	-10.9661
▁regre	-10.9662
▁forecasters	-10.9662
▁num	-10.9662
InThe	-10.9662
Rebel	-10.9662
▁Beast	-10.9663
liber	-10.9663
▁tele	-10.9663
CL	-10.9663
▁dodge	-10.9663
▁griev	-10.9663
▁70	-10.9663
▁Antarctica	-10.9663
59	-10.9663
▁product	-10.9664
Schow	-10.9664
▁yrs	-10.9664
wald	-10.9664
umsby	-10.9664
▁Kenne	-10.9664
▁baited	-10.9664
omberger	-10.9665
taneous	-10.9665
▁Person	-10.9665
▁Law	-10.9665
▁Ku	-10.9665
▁marked	-10.9665
▁77	-10.9665
▁university	-10.9665
▁bike	-10.9665
▁spawned	-10.9666
▁launched	-10.9666
Cross	-10.9666
▁NAM	-10.9666
▁flee	-10.9667
▁complacent	-10.9668
▁Merri	-10.9668
▁linger	-10.9669
▁Kra	-10.9669
▁offhanded	-10.9669
▁downside	-10.9669
▁Kurt	-10.9669
▁everybody	-10.9669
rtists	-10.9671
drift	-10.9671
PDA	-10.9671
▁dismissed	-10.9671
Drudge	-10.9672
kes	-10.9673
▁dancer	-10.9673
ralized	-10.9675
▁Vine	-10.9676
▁stark	-10.9677
▁Really	-10.9677
onnell	-10.9677
urse	-10.9678
▁Act	-10.9678
▁fundraising	-10.9679
▁dismissing	-10.9681
▁esp	-10.9681
▁nationalis	-10.9683
▁smaller	-10.9683
▁neuro	-10.9684
▁pointless	-10.9684
▁resur	-10.9686
▁framed	-10.9687
▁prosecutor	-10.9687
▁ride	-10.9687
▁surprised	-10.9688
▁bluntly	-10.9689
▁definitive	-10.969
idate	-10.969
▁endlessly	-10.9691
▁Holt	-10.9691
▁investor	-10.9692
closure	-10.9692
▁bench	-10.9692
▁subsid	-10.9692
main	-10.9694
horse	-10.9694
▁confused	-10.9696
AC	-10.9697
▁shock	-10.9697
ador	-10.9697
▁convicted	-10.9698
mised	-10.9699
▁USA	-10.9699
▁tribal	-10.9699
▁farce	-10.9699
BS	-10.9701
▁extremist	-10.9702
Hadas	-10.9703
▁qualifie	-10.9704
urvey	-10.9704
▁Ok	-10.9704
vox	-10.9705
APO	-10.9706
▁marginaliz	-10.9707
Ethan	-10.9707
NOW	-10.9709
▁itemiz	-10.9711
Langer	-10.9711
▁weirder	-10.9711
▁lea	-10.9713
▁simulate	-10.9713
▁movi	-10.9714
▁properly	-10.9715
oldstein	-10.9715
▁conve	-10.9716
▁outsider	-10.9716
▁applau	-10.9716
▁angri	-10.9717
▁intend	-10.9717
▁Pate	-10.9717
▁interviewer	-10.9721
▁disagreed	-10.9722
ilyse	-10.9722
▁troubled	-10.9722
▁gate	-10.9722
UGE	-10.9722
▁Tr	-10.9723
▁ramp	-10.9724
▁deba	-10.9725
Jett	-10.9726
▁oven	-10.9729
▁sweat	-10.973
lisab	-10.9731
▁chosen	-10.9731
▁Text	-10.9736
▁oil	-10.9737
▁plots	-10.974
▁Prote	-10.9741
oogle	-10.9743
▁Jenn	-10.9743
smooth	-10.9743
▁relations	-10.9744
Freeman	-10.9744
▁circumstances	-10.9745
▁interacti	-10.9747
▁War	-10.9747
▁trucks	-10.9747
Benjy	-10.9748
▁pivot	-10.9748
▁Blood	-10.9749
soph	-10.975
gro	-10.9752
▁repeating	-10.9752
ucky	-10.9753
▁desperate	-10.9754
▁margins	-10.9755
ocation	-10.9756
▁ignored	-10.9756
76	-10.9756
eph	-10.9757
King	-10.9758
▁99	-10.9758
▁concerned	-10.9759
▁terroriz	-10.9759
eight	-10.9759
▁em	-10.9763
▁Mc	-10.9763
beh	-10.9764
▁conte	-10.9764
▁leaning	-10.9764
▁trope	-10.9764
▁affirmed	-10.9765
▁reflection	-10.9767
clock	-10.9768
everyday	-10.977
Tony	-10.9774
▁sun	-10.9777
▁ripp	-10.9779
▁nuke	-10.9785
▁showers	-10.9787
▁earn	-10.9787
Jerry	-10.9788
▁Oh	-10.9789
Great	-10.979
▁biases	-10.9791
▁Had	-10.9792
▁conclud	-10.9793
rumpy	-10.9794
▁magn	-10.9795
▁posturing	-10.9795
otic	-10.9797
jake	-10.9798
▁driver	-10.9799
descend	-10.9806
bri	-10.9807
▁invalidate	-10.9808
▁meteorologist	-10.9808
▁08	-10.9809
▁Stein	-10.981
ben	-10.981
HIS	-10.9812
▁BL	-10.9812
▁expedit	-10.9813
▁spat	-10.9818
▁Sun	-10.9821
gle	-10.9822
▁sticker	-10.9825
Peter	-10.9825
▁nerv	-10.9825
eaten	-10.9826
hb	-10.983
eric	-10.9832
molly	-10.9833
▁blo	-10.9833
▁prolifer	-10.9834
▁approving	-10.9837
▁Gla	-10.984
▁NEW	-10.984
▁Review	-10.9843
ueen	-10.9844
▁$7	-10.9847
▁require	-10.9847
tely	-10.9851
▁mil	-10.9851
ently	-10.9852
▁Steph	-10.9855
egan	-10.9857
▁Out	-10.9857
▁capital	-10.986
▁Art	-10.9861
▁dumb	-10.9862
▁dominat	-10.9862
▁NYC	-10.9866
▁TRUMP	-10.9866
▁Army	-10.9867
▁Rothman	-10.9867
▁Canada	-10.9867
▁Harambe	-10.9868
▁Trudeau	-10.9868
▁frog	-10.9869
▁horrific	-10.9869
▁misrepresent	-10.9869
▁Campaign	-10.987
▁freedom	-10.9871
▁Tea	-10.9871
▁negati	-10.9873
▁Royal	-10.9873
237	-10.9875
blaz	-10.9876
▁insu	-10.9877
▁63	-10.9878
GG	-10.9878
esque	-10.9879
▁endorsing	-10.9881
▁’	-10.9885
▁Bern	-10.9888
rumbling	-10.9889
▁53	-10.9893
Herold	-10.9894
structi	-10.9895
▁pants	-10.9896
▁Fal	-10.9898
Jamil	-10.9899
▁poet	-10.99
▁striking	-10.99
▁Face	-10.9901
OH	-10.9903
rolling	-10.9904
▁cleaning	-10.9906
▁pig	-10.9906
DES	-10.9907
05	-10.9907
▁Under	-10.9908
▁chill	-10.9909
▁gif	-10.991
▁assert	-10.9911
max	-10.9916
▁32	-10.9918
list	-10.9923
▁burk	-10.9923
central	-10.9924
pha	-10.9926
▁Years	-10.993
▁developer	-10.9931
▁grown	-10.9932
▁greater	-10.9932
▁father	-10.9934
poster	-10.9936
▁Vir	-10.9937
▁invok	-10.9946
tory	-10.9947
▁melt	-10.9948
hief	-10.9948
▁Jan	-10.995
etic	-10.9951
▁coal	-10.9953
utions	-10.9956
▁Give	-10.9958
azi	-10.996
quare	-10.9962
▁unify	-10.9964
▁Hal	-10.9966
champ	-10.9968
truck	-10.9971
dditional	-10.9972
▁mom	-10.9974
pic	-10.9976
▁Emi	-10.9983
▁faze	-10.9986
lph	-10.9986
▁kit	-10.9987
▁trad	-10.9989
ram	-10.9991
▁endors	-10.9994
▁Look	-11
▁dogs	-11.0001
Kenyan	-11.0002
▁budd	-11.0006
▁corners	-11.0009
tar	-11.001
▁disp	-11.0015
▁stra	-11.0017
▁55	-11.0017
IT	-11.0018
US	-11.0018
▁cl	-11.0022
ast	-11.0025
thing	-11.0026
nough	-11.0035
▁toxic	-11.0036
astic	-11.0038
▁objective	-11.0039
thodo	-11.0051
ves	-11.0052
▁Lind	-11.0054
rugge	-11.0057
logy	-11.0058
▁”#	-11.0065
▁Ard	-11.0067
cool	-11.0067
▁landing	-11.0067
tail	-11.0068
▁respective	-11.0072
ection	-11.0072
19	-11.0073
65	-11.0076
▁search	-11.008
▁height	-11.0082
wn	-11.0082
Again	-11.0084
robab	-11.0084
election	-11.0085
ttention	-11.0089
▁tools	-11.0089
▁BI	-11.0092
▁content	-11.0093
piling	-11.0101
woke	-11.0106
▁topics	-11.0111
▁Pla	-11.0112
swipe	-11.0114
▁anim	-11.0114
▁referenc	-11.0114
▁senators	-11.0115
▁thinker	-11.0131
ged	-11.0131
▁Games	-11.0134
▁dead	-11.0139
atters	-11.0146
▁whoever	-11.0149
bell	-11.0153
▁App	-11.0167
▁sole	-11.0172
▁producer	-11.0173
▁Abb	-11.0179
▁Chil	-11.0183
▁swo	-11.0193
Abby	-11.02
▁gu	-11.0201
▁mere	-11.0205
▁Jacobs	-11.0207
hold	-11.0207
tation	-11.0209
nclusion	-11.021
ina	-11.0212
▁PD	-11.0213
nia	-11.0218
▁wo	-11.0219
▁align	-11.0221
▁Dep	-11.0222
▁appeal	-11.0227
▁Rezaian	-11.0239
elle	-11.0241
▁Pocahontas	-11.0241
Sha	-11.0256
lves	-11.0262
▁distan	-11.0265
▁Arl	-11.0265
blank	-11.0266
▁interested	-11.027
don	-11.027
iling	-11.0271
▁nationally	-11.0273
▁ye	-11.0285
▁Eu	-11.0286
ssroo	-11.0286
▁mic	-11.0291
pinning	-11.0291
▁exper	-11.0292
▁cancell	-11.0297
▁Tian	-11.03
▁holding	-11.03
▁screams	-11.0301
▁benefits	-11.0302
▁episodes	-11.0304
▁markets	-11.0309
allies	-11.0314
▁doctors	-11.0317
EL	-11.0318
▁Ari	-11.0318
▁Amen	-11.0322
▁conce	-11.0331
end	-11.0339
ink	-11.0349
▁bang	-11.0356
tha	-11.0357
ocked	-11.0357
bound	-11.0364
▁undermin	-11.0368
▁ava	-11.0371
▁tid	-11.0378
▁material	-11.038
▁yes	-11.0381
Tr	-11.0382
site	-11.0384
wards	-11.039
▁gro	-11.0392
ran	-11.0393
▁runner	-11.0394
▁terrif	-11.0397
▁$28	-11.04
vision	-11.0405
ulate	-11.0409
rring	-11.0416
tru	-11.042
▁Ask	-11.0422
sided	-11.0427
▁comm	-11.0455
rries	-11.0461
▁Pri	-11.0465
▁blogg	-11.0469
▁Mit	-11.0474
▁professionals	-11.0476
burns	-11.0477
lowing	-11.0485
▁hearing	-11.0486
ref	-11.0515
▁IS	-11.0519
▁readers	-11.0521
hould	-11.0525
ntil	-11.0533
racking	-11.0541
▁historical	-11.0555
▁barr	-11.0572
▁trade	-11.0581
flame	-11.0589
barr	-11.0601
ommissioner	-11.0607
cott	-11.0608
▁disma	-11.0612
▁purp	-11.0612
ague	-11.0622
rop	-11.0637
▁generat	-11.0644
▁Heav	-11.0647
ess	-11.0666
cumb	-11.067
uz	-11.0677
▁weekends	-11.0678
Ro	-11.0683
▁Dis	-11.0685
Lad	-11.0686
▁fract	-11.0697
▁SC	-11.0698
▁el	-11.0703
mount	-11.0719
observation	-11.0726
▁$2	-11.0729
▁conver	-11.073
▁ball	-11.0743
bout	-11.0744
▁Fo	-11.0747
▁artists	-11.075
ryan	-11.076
▁beat	-11.0762
artnership	-11.0763
▁positioning	-11.0765
▁casual	-11.0769
▁Read	-11.0771
irth	-11.0776
argaret	-11.0776
Onion	-11.0779
▁Bea	-11.0783
rudge	-11.0784
shouting	-11.0791
▁Nee	-11.0796
ji	-11.081
▁Pu	-11.0814
ode	-11.0815
▁coin	-11.0815
hammer	-11.0829
zone	-11.0837
ass	-11.0841
▁sheet	-11.0847
AN	-11.085
other	-11.0852
bi	-11.0855
▁sway	-11.0856
mer	-11.0857
▁broker	-11.0862
nj	-11.0887
▁answered	-11.0889
▁targets	-11.0893
east	-11.0904
▁factor	-11.0912
reign	-11.0922
ean	-11.0924
raid	-11.0924
▁attendan	-11.0937
▁NeverTrump	-11.0944
▁Coun	-11.0949
▁ele	-11.0953
2.	-11.0968
ond	-11.0972
▁chor	-11.0982
labor	-11.0983
▁Ov	-11.0984
TER	-11.0988
stration	-11.1003
▁cars	-11.1006
▁store	-11.1009
▁sti	-11.1016
nee	-11.102
▁ho	-11.1022
▁spot	-11.1037
unnel	-11.1038
▁hu	-11.1043
▁characteristic	-11.1043
▁emails	-11.1044
LI	-11.1045
▁networks	-11.1045
▁operat	-11.1046
▁Reagans	-11.1048
rest	-11.106
▁af	-11.1085
▁Associate	-11.1111
elegate	-11.1122
64	-11.1125
rich	-11.1135
dge	-11.114
▁shots	-11.1148
iquit	-11.115
Hermi	-11.1155
▁8:	-11.1165
grace	-11.1168
ooney	-11.1176
▁books	-11.1182
▁pike	-11.1188
Justin	-11.12
ozen	-11.1206
▁da	-11.1213
oud	-11.1213
op	-11.1221
▁tim	-11.1227
▁dealing	-11.1229
▁$8	-11.1232
▁union	-11.1234
ude	-11.1234
MD	-11.1239
▁Sara	-11.1246
▁summ	-11.1246
▁bruise	-11.1249
men	-11.1259
Rights	-11.127
hn	-11.1273
▁finals	-11.1273
Jim	-11.1291
▁FR	-11.1295
▁Sy	-11.1295
▁Scar	-11.1324
▁critical	-11.1336
▁cho	-11.1336
▁contribut	-11.1368
▁boo	-11.1377
▁delet	-11.138
eating	-11.1384
sives	-11.1395
▁Fre	-11.1399
ieve	-11.1406
▁Hol	-11.1408
BC	-11.1412
▁seconds	-11.1412
▁cont	-11.1414
▁pack	-11.1417
▁vent	-11.1438
uts	-11.1444
scal	-11.1457
ranch	-11.146
urs	-11.1464
▁motion	-11.1474
ones	-11.1484
▁Gab	-11.1491
▁argues	-11.1494
rian	-11.1509
da	-11.151
ip	-11.1535
▁ret	-11.1562
acker	-11.1581
ot	-11.1586
▁continues	-11.159
ak	-11.1595
still	-11.1605
rage	-11.1607
esnikoff	-11.1652
zab	-11.1672
ame	-11.1673
▁tread	-11.1679
▁Dr	-11.1681
lap	-11.1683
ength	-11.1685
olk	-11.1686
sta	-11.1687
CA	-11.1688
pplies	-11.1692
solve	-11.1705
▁cur	-11.1705
ranged	-11.1708
▁crush	-11.1714
▁Fed	-11.1718
▁negotia	-11.1724
urious	-11.1726
urin	-11.1732
rks	-11.1733
▁mar	-11.1748
rose	-11.176
▁sho	-11.176
pact	-11.1773
ters	-11.1773
▁vis	-11.1779
▁Jos	-11.1783
fly	-11.1801
GE	-11.1807
▁traditional	-11.1816
▁owe	-11.1817
ced	-11.1823
▁flag	-11.1839
▁gr	-11.1841
cal	-11.1854
off	-11.1855
atus	-11.1871
pted	-11.1871
▁prop	-11.1872
▁interven	-11.1874
▁translat	-11.1875
ega	-11.1891
▁(!	-11.1914
mm	-11.1929
Salen	-11.193
▁dramatic	-11.1931
▁bedro	-11.1933
▁Wh	-11.1944
79	-11.1967
erc	-11.1996
▁Uni	-11.2
electric	-11.2001
▁Han	-11.2028
▁identif	-11.2048
hil	-11.2049
▁balanc	-11.2061
quir	-11.2069
▁info	-11.2075
▁player	-11.208
▁populate	-11.2082
ics	-11.2091
ven	-11.2098
▁accumulation	-11.2102
ora	-11.2112
lling	-11.2112
uit	-11.2113
erva	-11.2114
ebsites	-11.2116
IN	-11.2118
lman	-11.2123
och	-11.2133
▁racists	-11.2135
habit	-11.2147
▁hub	-11.2149
▁Ki	-11.2154
▁comedi	-11.2158
▁endure	-11.2163
▁dro	-11.2173
▁Lead	-11.2176
osed	-11.2191
lities	-11.2198
spare	-11.2206
▁tak	-11.2218
▁Franc	-11.2233
▁cautio	-11.2233
▁sav	-11.2234
rude	-11.2236
THE	-11.225
▁Cit	-11.2254
itzer	-11.2258
▁challeng	-11.227
alex	-11.2274
sus	-11.2304
nson	-11.2308
sean	-11.2317
ardi	-11.2317
▁har	-11.2321
eva	-11.2324
▁posts	-11.2325
john	-11.2337
ike	-11.2339
ark	-11.2373
▁prim	-11.2378
▁bans	-11.2379
50	-11.2394
▁overse	-11.2403
fits	-11.2407
▁plans	-11.2412
yan	-11.2426
eaks	-11.2432
▁fl	-11.2435
▁Geo	-11.244
▁Pers	-11.2443
Billy	-11.2446
ften	-11.2459
day	-11.2459
ear	-11.2467
▁talkin	-11.2481
▁sea	-11.2485
ym	-11.2498
▁Eri	-11.2507
ared	-11.256
latch	-11.2586
▁Asia	-11.2586
▁assist	-11.2589
ification	-11.2593
▁emb	-11.2596
tified	-11.2597
▁wars	-11.2615
);	-11.2616
iana	-11.2619
▁powers	-11.2647
▁Bre	-11.2658
▁Gra	-11.2658
PM	-11.2659
▁ded	-11.2689
▁Intern	-11.2713
owl	-11.2758
▁ba	-11.276
▁round	-11.2766
ail	-11.2768
jen	-11.2768
Arabs	-11.2771
my	-11.2771
nds	-11.2786
90	-11.2791
ives	-11.2792
▁4:	-11.28
eb	-11.2805
grat	-11.2809
▁respons	-11.2854
ms	-11.2856
▁disciplin	-11.2879
highlights	-11.289
istically	-11.2901
▁cap	-11.2906
urb	-11.2922
uses	-11.2966
▁Bar	-11.2967
▁purs	-11.2979
imply	-11.2983
olbert	-11.3002
▁warn	-11.3028
rift	-11.3034
yer	-11.3038
▁mini	-11.3044
▁inci	-11.3057
sm	-11.3067
als	-11.3068
ital	-11.3092
ference	-11.3096
Hav	-11.3113
▁hint	-11.3121
aper	-11.3123
▁imp	-11.3126
NotTh	-11.3126
▁trie	-11.3136
▁commun	-11.3144
inent	-11.3162
urns	-11.317
▁faci	-11.319
▁deaths	-11.3192
Well	-11.3196
▁cla	-11.3197
▁mode	-11.3208
▁interfere	-11.3225
▁sill	-11.3226
▁pundit	-11.3233
cin	-11.3239
parti	-11.3243
esearch	-11.3245
▁Globe	-11.3275
akes	-11.3295
▁Fe	-11.3313
▁Ope	-11.3315
▁Mat	-11.3316
▁spell	-11.332
grav	-11.3337
gist	-11.3345
▁clarif	-11.3346
marks	-11.3363
▁perpet	-11.3378
▁fights	-11.3385
▁ri	-11.339
ading	-11.3393
▁Hu	-11.3399
kle	-11.3403
read	-11.3407
bine	-11.3442
▁Polic	-11.3443
ep	-11.3451
▁easie	-11.3456
cit	-11.3468
plan	-11.3486
yed	-11.3511
ondemnation	-11.3513
▁oppose	-11.3566
▁places	-11.3568
ited	-11.3575
iles	-11.358
od	-11.3594
types	-11.3595
▁corr	-11.3611
ks	-11.3621
▁perpetua	-11.3625
Lee	-11.3637
eigel	-11.365
▁fri	-11.3779
related	-11.38
hy	-11.3839
stry	-11.3852
cement	-11.3856
Ashe	-11.3861
eh	-11.3871
lying	-11.389
tel	-11.3893
os	-11.3904
▁thriv	-11.3907
older	-11.3916
Do	-11.3952
▁intervene	-11.4045
▁celebrit	-11.4065
ddle	-11.4075
mi	-11.4118
orn	-11.4138
▁gra	-11.4141
▁fare	-11.4157
por	-11.416
▁discipline	-11.416
shaker	-11.4177
reach	-11.4182
▁execut	-11.4195
▁Ni	-11.4216
▁promi	-11.4232
sen	-11.4241
arah	-11.425
nted	-11.4264
81	-11.4266
ordin	-11.4274
yn	-11.4279
jav	-11.4283
ort	-11.4286
osa	-11.429
▁tear	-11.43
▁Ser	-11.4315
▁jur	-11.4323
aying	-11.4327
OR	-11.4343
aged	-11.4349
ster	-11.4356
▁Twit	-11.4356
IV	-11.4363
▁dur	-11.4406
▁works	-11.4421
dding	-11.4424
nction	-11.4424
llow	-11.4437
suit	-11.444
rent	-11.4445
ob	-11.4451
▁58	-11.4454
▁worlds	-11.4459
Dems	-11.448
▁confus	-11.4519
sions	-11.4524
tor	-11.4562
nk	-11.4575
ify	-11.4584
▁tac	-11.4593
▁priorit	-11.4594
iting	-11.4629
oodbody	-11.4633
▁Bel	-11.4654
anda	-11.4656
lton	-11.4683
ifying	-11.4707
Fu	-11.4708
ress	-11.4715
how	-11.4741
▁Sr	-11.4754
expend	-11.4755
gori	-11.477
lement	-11.4781
▁spi	-11.48
▁urgen	-11.4815
ah	-11.4831
▁prope	-11.4847
▁temp	-11.4849
ideas	-11.4863
▁jun	-11.4942
wear	-11.4963
yle	-11.4972
▁Gr	-11.4976
ker	-11.5004
▁unt	-11.5013
urtful	-11.5019
uge	-11.504
bits	-11.5078
lam	-11.5091
Down	-11.5105
ccumulations	-11.5129
▁Acc	-11.5129
▁rank	-11.5133
finding	-11.5148
rega	-11.5152
steel	-11.5154
Gay	-11.5162
missing	-11.5173
▁card	-11.5186
▁bask	-11.519
ormer	-11.5196
own	-11.5213
▁tip	-11.5226
▁div	-11.5244
rick	-11.5261
▁Vi	-11.5264
ments	-11.5279
berg	-11.5287
▁McG	-11.5291
ni	-11.5297
▁pal	-11.5298
▁mak	-11.5336
▁shoe	-11.5345
int	-11.5372
po	-11.5373
▁appreciat	-11.5382
erer	-11.5384
dled	-11.5397
▁embrac	-11.5409
ab	-11.5416
▁ten	-11.5419
sk	-11.5422
▁sal	-11.5427
legaliz	-11.5459
erge	-11.5464
▁heal	-11.5467
len	-11.5481
▁unto	-11.5489
volved	-11.55
▁..”	-11.5521
ten	-11.5555
und	-11.5591
Stephens	-11.5604
▁Ar	-11.5614
Gods	-11.564
▁mocke	-11.5643
rug	-11.565
▁stu	-11.5656
▁Par	-11.5671
aren	-11.5672
▁Bl	-11.5674
aken	-11.5687
egard	-11.5709
▁Som	-11.5721
itable	-11.5723
trategi	-11.5737
ind	-11.5772
espondent	-11.5787
nding	-11.5813
itz	-11.5813
▁reduce	-11.5837
▁ge	-11.585
elebrity	-11.5855
ole	-11.588
▁port	-11.5906
▁sch	-11.5907
du	-11.5969
▁cond	-11.5969
▁197	-11.597
▁juri	-11.5972
▁Rad	-11.5983
▁emp	-11.5999
▁capt	-11.6005
tens	-11.6009
▁fame	-11.6012
eek	-11.6015
▁leg	-11.6022
CB	-11.6028
so	-11.6038
▁crushe	-11.6049
▁scare	-11.6056
tt	-11.607
ulia	-11.6088
form	-11.6098
▁Kare	-11.6098
▁disgr	-11.6125
▁nominat	-11.6125
▁prob	-11.6137
▁Ta	-11.6153
tellec	-11.6159
▁cre	-11.6176
▁Moderat	-11.6178
petition	-11.621
gardin	-11.6215
▁compl	-11.6217
▁dra	-11.6293
▁Mi	-11.6305
▁punish	-11.6323
ourn	-11.6328
ened	-11.6345
▁cloth	-11.6411
agically	-11.6422
▁nei	-11.6425
radi	-11.6445
ement	-11.6454
▁lit	-11.6467
dness	-11.6495
oul	-11.6502
▁swi	-11.6514
▁Wal	-11.655
ult	-11.656
iming	-11.6565
Any	-11.6581
▁Right	-11.6581
▁mer	-11.6593
ingers	-11.6603
▁pl	-11.6605
▁solv	-11.6608
outh	-11.6618
rt	-11.6624
▁contribute	-11.665
▁favori	-11.6664
homas	-11.6677
▁kne	-11.6687
tronger	-11.6689
adness	-11.6699
till	-11.6707
▁Liv	-11.6722
▁techni	-11.6735
ailed	-11.6739
▁ideolog	-11.6754
rill	-11.6759
▁pr	-11.6795
▁owner	-11.6832
▁Aust	-11.6836
lle	-11.6849
wav	-11.6851
this	-11.6857
▁fu	-11.6865
iled	-11.6868
are	-11.6893
diot	-11.6895
thor	-11.691
▁attend	-11.6912
▁tea	-11.6916
estri	-11.692
amin	-11.6931
isa	-11.694
▁Lis	-11.6954
destroy	-11.6965
joe	-11.6976
▁sol	-11.6982
004	-11.6986
▁zon	-11.7009
nent	-11.7009
mal	-11.7012
▁alien	-11.7015
fire	-11.7031
date	-11.7051
▁compel	-11.7052
obs	-11.7053
ists	-11.7056
▁Pres	-11.7082
▁moderat	-11.7083
mic	-11.7107
oast	-11.7114
▁incredibl	-11.7125
▁ur	-11.7138
ho	-11.7141
ez	-11.7158
ount	-11.7188
oney	-11.7217
(	-11.7221
▁Mid	-11.7228
▁Bon	-11.7243
▁pos	-11.7258
bu	-11.7303
umb	-11.7324
has	-11.7336
grade	-11.7338
sed	-11.7346
jon	-11.7349
ax	-11.7373
▁Wo	-11.738
▁Prom	-11.7397
owes	-11.7404
ign	-11.7404
▁capa	-11.7416
jam	-11.7421
▁var	-11.7426
▁bear	-11.7451
ensu	-11.7456
efty	-11.7478
ging	-11.7479
ets	-11.7479
▁thr	-11.7509
su	-11.7521
mel	-11.7538
ote	-11.7538
ser	-11.7546
▁?	-11.7548
YE	-11.7552
good	-11.7562
▁supp	-11.7572
ura	-11.7573
▁Cen	-11.7594
▁ble	-11.7601
▁bull	-11.7607
wco	-11.7623
homa	-11.764
Clinton	-11.7653
igned	-11.7657
▁Sch	-11.7687
▁Cl	-11.7695
ury	-11.7704
mber	-11.7714
rror	-11.7723
adi	-11.7724
Th	-11.7728
▁Con	-11.7729
nned	-11.7731
▁sprin	-11.7738
▁trea	-11.7752
▁perv	-11.7776
itt	-11.7786
verted	-11.7786
hrill	-11.7792
war	-11.7796
▁op	-11.7813
elp	-11.7825
ouse	-11.7832
▁histori	-11.7842
inary	-11.7843
rom	-11.7848
▁provi	-11.785
core	-11.7864
mba	-11.7864
dav	-11.7874
▁spon	-11.7878
fessor	-11.7891
q	-11.7921
down	-11.7926
ounded	-11.7934
▁sca	-11.7935
Wi	-11.7938
itive	-11.7945
▁Cont	-11.7953
▁ado	-11.796
▁pol	-11.7998
▁cancel	-11.8021
▁possibl	-11.8024
make	-11.8041
when	-11.8055
▁shame	-11.8058
▁unp	-11.8066
sy	-11.8066
rizon	-11.8066
ships	-11.8075
▁glo	-11.8084
pl	-11.8085
▁eng	-11.8086
▁sla	-11.8086
ators	-11.8099
eply	-11.8115
Sanders	-11.8123
public	-11.8132
▁dism	-11.8147
plicated	-11.8166
▁susp	-11.8203
New	-11.8206
lock	-11.8216
▁trap	-11.8224
arity	-11.8228
▁followe	-11.8244
rincess	-11.8252
lip	-11.8254
alty	-11.8257
traction	-11.8262
▁Cu	-11.8266
▁ch	-11.8284
▁comin	-11.8295
800	-11.83
▁bee	-11.8304
ired	-11.8332
were	-11.8332
ery	-11.8349
ively	-11.8369
oting	-11.8398
editors	-11.8403
Wit	-11.8406
Merc	-11.8432
▁participat	-11.8467
debate	-11.8474
does	-11.85
▁Ala	-11.8504
drew	-11.8517
75	-11.8524
▁remark	-11.8532
▁swip	-11.8546
should	-11.8552
02	-11.8563
conservative	-11.8566
har	-11.8584
▁ratio	-11.8589
ndle	-11.8599
lighted	-11.86
▁distr	-11.8602
▁Us	-11.8602
hit	-11.8605
first	-11.8617
cc	-11.8622
some	-11.8625
rise	-11.8637
America	-11.8651
▁Com	-11.8661
friend	-11.8669
apped	-11.8687
bump	-11.8714
after	-11.872
something	-11.8721
▁loc	-11.8741
car	-11.8747
That	-11.8753
May	-11.8755
▁corner	-11.8759
▁Kenya	-11.8762
Schumer	-11.8778
claim	-11.8784
▁non	-11.8786
▁ultimat	-11.8786
▁partner	-11.8789
eal	-11.8802
▁hav	-11.8802
look	-11.8803
▁greate	-11.8806
shot	-11.8806
dest	-11.8808
How	-11.8811
▁disc	-11.882
losing	-11.883
omerleau	-11.8831
police	-11.8831
▁underp	-11.8839
▁candid	-11.8843
▁Dan	-11.8847
American	-11.885
mes	-11.8859
▁ent	-11.8862
political	-11.8868
producer	-11.8873
Yea	-11.8879
Ken	-11.888
▁Matte	-11.8883
ori	-11.8884
26	-11.8889
rath	-11.8896
diction	-11.8897
verything	-11.8897
ering	-11.8897
world	-11.8901
attack	-11.8902
Some	-11.8913
Bash	-11.8915
▁General	-11.8916
many	-11.8917
youth	-11.8922
Rec	-11.8925
she	-11.8925
dicate	-11.8925
book	-11.8934
traditional	-11.8936
Snow	-11.8937
President	-11.8938
caucus	-11.8939
life	-11.8943
nominee	-11.8944
since	-11.8954
GO	-11.8957
Bru	-11.896
Christie	-11.8961
bb	-11.8962
Le	-11.8971
science	-11.8972
▁Amb	-11.8972
troll	-11.8972
lib	-11.8978
objective	-11.8978
Wiz	-11.898
certain	-11.8983
Matt	-11.8987
▁Bil	-11.8988
close	-11.899
Look	-11.899
Under	-11.8996
views	-11.8996
Democrats	-11.8996
Why	-11.8996
party	-11.8997
Roth	-11.9001
lon	-11.9003
▁CA	-11.9004
Report	-11.9014
inches	-11.9019
▁Stan	-11.902
Give	-11.9024
umbling	-11.9025
parent	-11.9025
justice	-11.9031
Bow	-11.9032
week	-11.9032
▁gene	-11.9033
James	-11.9034
light	-11.9036
march	-11.9038
define	-11.9039
Post	-11.9043
money	-11.9044
HE	-11.9045
Carson	-11.9045
racist	-11.9048
fuck	-11.9048
normal	-11.9049
Brutalist	-11.9049
matter	-11.905
David	-11.9052
ntry	-11.9054
Johnson	-11.9056
politics	-11.9056
brows	-11.9057
▁defer	-11.9057
Royal	-11.9059
bab	-11.9061
Joe	-11.9061
Campaign	-11.9067
itself	-11.9067
West	-11.9067
18	-11.9068
misrepresent	-11.9069
Trudeau	-11.9071
Harambe	-11.9071
Canada	-11.9072
Bern	-11.9073
horrific	-11.9073
MS	-11.9074
freedom	-11.9074
TRUMP	-11.9074
writes	-11.9075
striking	-11.9076
too	-11.9076
Army	-11.9076
▁reass	-11.9077
defense	-11.9077
Rothman	-11.9077
cular	-11.9077
cleaning	-11.9078
Abramowitz	-11.9079
Texas	-11.9079
mitted	-11.908
business	-11.908
Cost	-11.9081
▁refu	-11.9084
Lochte	-11.9085
continue	-11.9085
repeated	-11.9085
voting	-11.9088
effective	-11.9088
iminal	-11.9089
Steph	-11.9089
standing	-11.9089
dramatic	-11.909
grown	-11.909
Iran	-11.9093
prayer	-11.9093
proposal	-11.9093
Who	-11.9093
taxes	-11.9094
capital	-11.9094
Bad	-11.9096
ature	-11.9097
Just	-11.9099
Reagan	-11.9099
wait	-11.91
▁surg	-11.9101
Brown	-11.9103
frog	-11.9103
leaders	-11.9104
Mexico	-11.9104
Inside	-11.9105
si	-11.9105
pledge	-11.9105
grabb	-11.9106
Hamilton	-11.9106
broker	-11.9108
Perdue	-11.9108
experience	-11.9109
space	-11.9109
Nowruz	-11.911
function	-11.911
Adams	-11.911
Danny	-11.911
board	-11.9112
Luci	-11.9112
accusations	-11.9112
Smith	-11.9113
necessar	-11.9113
blizzard	-11.9113
Jeb	-11.9113
Liebman	-11.9114
unprecedented	-11.9114
cities	-11.9114
63	-11.9115
wondering	-11.9115
absolute	-11.9115
serious	-11.9115
Santorum	-11.9116
Super	-11.9116
Broad	-11.9116
poorly	-11.9116
father	-11.9117
similar	-11.9117
Ard	-11.9117
shore	-11.9117
opportunity	-11.9117
Green	-11.9117
generally	-11.9117
NPR	-11.9117
aggressive	-11.9118
Because	-11.9118
stopp	-11.9118
Olympics	-11.9119
thugs	-11.9119
Madaya	-11.9119
English	-11.912
prior	-11.912
Phelps	-11.912
Today	-11.912
terrorists	-11.9121
jun	-11.9122
security	-11.9123
fail	-11.9124
▁Pin	-11.9125
Also	-11.9126
Get	-11.9126
values	-11.9126
construction	-11.9126
information	-11.9126
build	-11.9127
battle	-11.9127
heads	-11.9128
neighborhood	-11.9128
organization	-11.913
safe	-11.913
street	-11.913
Year	-11.913
Like	-11.9131
House	-11.9131
phrase	-11.9132
punish	-11.9133
George	-11.9133
remarkabl	-11.9133
ortion	-11.9133
dog	-11.9134
script	-11.9135
NO	-11.9135
Cox	-11.9137
Hip	-11.9138
Ste	-11.9138
Hot	-11.9138
indeed	-11.9139
▁impl	-11.9139
faith	-11.914
chief	-11.914
balance	-11.9141
workers	-11.9142
Rose	-11.9144
NEW	-11.9144
disgusting	-11.9153
▁prolif	-11.9153
LA	-11.9155
60	-11.9157
Bay	-11.9157
bt	-11.9158
fashion	-11.9159
morning	-11.916
position	-11.916
Art	-11.9161
Review	-11.9162
important	-11.9163
respective	-11.9166
Gold	-11.9168
Area	-11.9168
RA	-11.9168
answered	-11.9169
icer	-11.9169
City	-11.9171
record	-11.9172
burk	-11.9172
Fox	-11.9172
care	-11.9173
box	-11.9175
▁Dow	-11.9175
elected	-11.9178
Pier	-11.9181
▁pla	-11.9184
competen	-11.9185
▁popul	-11.9185
started	-11.9191
liberal	-11.9191
service	-11.9192
tatistics	-11.9193
fun	-11.9198
friendly	-11.92
Out	-11.9203
NYC	-11.9204
leave	-11.9212
ich	-11.9213
dumb	-11.9215
invalidat	-11.9216
nda	-11.9219
Rob	-11.922
▁Historic	-11.9221
▁insid	-11.9225
Tim	-11.9227
▁Sh	-11.9228
Eli	-11.923
becom	-11.923
NJ	-11.9233
escend	-11.9234
▁ve	-11.9244
De	-11.9245
ugly	-11.9249
▁52	-11.9253
together	-11.9253
bl	-11.9255
ashamed	-11.9258
▁gener	-11.9258
meme	-11.926
▁conclu	-11.9263
affirm	-11.9263
Abb	-11.9264
08	-11.9266
hero	-11.9272
ane	-11.9275
mon	-11.9276
holding	-11.9278
smile	-11.9279
Philly	-11.9279
lived	-11.9285
53	-11.9286
ounds	-11.9287
hurt	-11.929
structur	-11.9291
favor	-11.9294
tough	-11.9297
cuts	-11.9299
oral	-11.9304
▁margin	-11.9305
cceptable	-11.9306
▁stresse	-11.9308
Sen	-11.931
Brit	-11.931
smart	-11.9311
support	-11.9312
telling	-11.9313
pants	-11.9314
All	-11.9315
▁gust	-11.9317
terrorism	-11.9318
door	-11.9322
giv	-11.9328
RI	-11.9329
sumption	-11.933
ctively	-11.9334
▁victim	-11.9338
veni	-11.9339
represent	-11.934
pointed	-11.9343
BI	-11.9351
cie	-11.9355
▁exercis	-11.9358
Ver	-11.9359
society	-11.936
▁Tue	-11.9365
▁circumstance	-11.9367
Mark	-11.9369
▁sampl	-11.937
member	-11.9371
▁controversi	-11.9372
order	-11.9372
liva	-11.9374
▁Field	-11.9383
▁Presiden	-11.9385
▁consultant	-11.939
▁Matthew	-11.939
greement	-11.9391
ft	-11.9391
▁swimmer	-11.9399
▁immigrant	-11.94
▁tactic	-11.9404
▁condition	-11.9407
▁Tran	-11.9407
▁advocate	-11.9409
▁relation	-11.9409
▁institution	-11.941
▁path	-11.941
▁plot	-11.9411
popular	-11.9412
lose	-11.9414
▁recogniz	-11.9414
FO	-11.9415
▁physic	-11.9416
realistic	-11.9417
Yes	-11.9418
Of	-11.9426
▁independen	-11.9427
pons	-11.9427
aded	-11.943
except	-11.9432
▁backward	-11.9433
Swi	-11.9435
ART	-11.9436
anim	-11.944
▁elit	-11.9443
TF	-11.9444
▁scientist	-11.9447
Rep	-11.9447
editor	-11.9448
rig	-11.945
alism	-11.9451
fell	-11.9454
▁simul	-11.9456
AV	-11.9457
dogs	-11.9458
▁dismiss	-11.946
lish	-11.9465
$	-11.9468
▁detail	-11.947
▁qualif	-11.9471
ociety	-11.9473
▁vaccine	-11.9475
▁boun	-11.9476
▁laugh	-11.9478
Tur	-11.948
plaining	-11.9481
combine	-11.9481
shots	-11.9482
Fien	-11.9482
nging	-11.9486
”#	-11.9487
ban	-11.949
dvocates	-11.9491
▁witnesse	-11.9495
roga	-11.9498
LaP	-11.9499
stein	-11.95
▁marginal	-11.9501
▁disas	-11.9501
blogge	-11.9502
ER	-11.9502
iniva	-11.9504
5.	-11.9505
shout	-11.9506
claims	-11.9507
▁deter	-11.9507
▁appar	-11.9508
envir	-11.9508
ogether	-11.9508
▁announc	-11.951
connect	-11.9513
culous	-11.9518
pant	-11.9523
▁Ei	-11.9527
rman	-11.9527
▁surviv	-11.9528
▁polic	-11.953
Music	-11.9533
▁fundrais	-11.9534
▁defender	-11.9535
▁suspen	-11.9536
mela	-11.9537
▁crimin	-11.9538
formation	-11.9541
▁pray	-11.9544
▁Pep	-11.9545
▁prepar	-11.9547
▁advertis	-11.9547
▁clean	-11.9549
love	-11.9553
▁unrep	-11.9553
25	-11.9558
nfortunately	-11.9558
▁vaccin	-11.9558
▁frequen	-11.956
▁complacen	-11.9561
latte	-11.9565
▁spawn	-11.9566
▁offhand	-11.9566
▁innocen	-11.9566
▁launch	-11.9569
▁suppose	-11.9571
▁coordinat	-11.9572
▁MO	-11.9574
▁valu	-11.9575
▁stereotyp	-11.9576
blo	-11.9578
aneous	-11.9579
▁predi	-11.9581
hap	-11.9582
bigge	-11.9583
▁circl	-11.9586
isgusting	-11.9588
▁figur	-11.9588
ditor	-11.9589
▁Georg	-11.959
▁strik	-11.9591
▁assimilat	-11.9591
stablishment	-11.9592
▁advise	-11.9595
conservatives	-11.9596
Luce	-11.9598
mpell	-11.9598
izing	-11.9602
cam	-11.9602
▁humiliat	-11.9603
crease	-11.9604
Liber	-11.9604
▁Afr	-11.9604
▁sometime	-11.9605
▁favo	-11.9606
share	-11.9607
▁Bi	-11.9608
ialized	-11.961
▁accumulat	-11.9613
Am	-11.9613
PS	-11.9614
embo	-11.9614
rogramm	-11.9614
patrioti	-11.9616
▁percepti	-11.9616
credit	-11.9617
clude	-11.9617
elevision	-11.9618
▁cult	-11.9618
rganization	-11.9618
▁technolog	-11.9619
▁industr	-11.9619
▁penalt	-11.962
▁Huma	-11.962
▁memor	-11.962
▁Prof	-11.9621
ebbi	-11.9621
ghorn	-11.9625
By	-11.9625
ubject	-11.9625
▁recover	-11.9626
stinct	-11.9626
▁Luc	-11.9626
▁Oliv	-11.9627
apist	-11.9627
semble	-11.9627
ortunately	-11.9627
stayin	-11.9627
ractor	-11.9627
▁permissi	-11.9628
minati	-11.9628
▁craz	-11.9629
enefit	-11.9629
▁substanti	-11.9629
▁constitu	-11.9629
ulture	-11.9629
rates	-11.963
▁cultur	-11.963
irls	-11.963
▁advan	-11.963
vocate	-11.963
ved	-11.963
easonable	-11.9631
mpossible	-11.9631
hotoshop	-11.9631
llegal	-11.9631
predictable	-11.9632
▁consum	-11.9632
▁investigat	-11.9632
Weath	-11.9632
▁dictat	-11.9632
nvestigation	-11.9633
hannel	-11.9633
etween	-11.9633
oalition	-11.9633
pisodes	-11.9633
nterview	-11.9633
wift	-11.9633
istrict	-11.9633
▁recruit	-11.9633
rimary	-11.9634
ssentially	-11.9634
▁belligeren	-11.9634
fficial	-11.9634
isagree	-11.9634
▁consequen	-11.9634
xplains	-11.9634
emocrats	-11.9634
ouglas	-11.9634
arliament	-11.9635
lorida	-11.9635
▁frustrat	-11.9635
telter	-11.9635
arlier	-11.9635
▁flaw	-11.9635
capita	-11.9635
orecasters	-11.9635
emonstrators	-11.9635
ruenig	-11.9636
▁coincide	-11.9636
OTUS	-11.9636
legally	-11.9636
▁alternat	-11.9636
accura	-11.9636
evolt	-11.9636
sequence	-11.9636
employe	-11.9636
awkins	-11.9636
▁ridicul	-11.9636
▁peace	-11.9637
▁employ	-11.9637
licate	-11.9637
tmyers	-11.9637
▁approx	-11.9637
Ferrera	-11.9637
▁Poké	-11.9637
Cauc	-11.9637
Granholm	-11.9637
ologists	-11.9637
ological	-11.9637
▁volu	-11.9637
Huerta	-11.9637
ompany	-11.9637
McB	-11.9637
tteMi	-11.9637
▁patri	-11.9637
Luntz	-11.9638
umanji	-11.9638
▁strip	-11.9638
Dolores	-11.9638
iminate	-11.9638
redictabl	-11.9638
igator	-11.9638
viser	-11.9638
equently	-11.9638
pixel	-11.9638
incl	-11.9638
abbi	-11.9638
venue	-11.9639
Brad	-11.9639
▁admin	-11.9639
owitz	-11.9639
▁absol	-11.9639
omplaint	-11.9639
▁exec	-11.9639
dominan	-11.964
015	-11.964
▁Webs	-11.964
ottom	-11.964
njoy	-11.964
lecting	-11.964
rctic	-11.964
uinn	-11.9641
▁presum	-11.9641
hanges	-11.9641
valid	-11.9641
▁depart	-11.9641
▁signifi	-11.9642
▁occu	-11.9642
efuge	-11.9642
duction	-11.9642
conomi	-11.9642
▁McK	-11.9642
ramble	-11.9642
utlaw	-11.9642
AmericaF	-11.9643
pol	-11.9643
ounced	-11.9643
▁Kush	-11.9644
▁happ	-11.9644
▁agenc	-11.9644
Gon	-11.9645
▁Thurs	-11.9645
logic	-11.9645
▁shoot	-11.9645
dcast	-11.9645
▁preced	-11.9646
onfirm	-11.9646
timately	-11.9646
bama	-11.9646
ulating	-11.9647
forgot	-11.9647
Atta	-11.9648
▁gym	-11.965
▁brig	-11.965
▁scen	-11.9651
ivity	-11.9651
▁Sri	-11.9651
▁Washing	-11.9651
KING	-11.9651
spens	-11.9652
▁brag	-11.9652
eliv	-11.9652
▁Doug	-11.9652
reams	-11.9652
ggling	-11.9653
Prin	-11.9653
ntBe	-11.9653
ehind	-11.9653
▁Front	-11.9654
llllll	-11.9654
▁Feb	-11.9654
ogyn	-11.9655
Sarandon	-11.9655
scape	-11.9656
ffice	-11.9657
▁devi	-11.9657
litch	-11.9658
▁Murd	-11.9659
▁announce	-11.9659
▁swim	-11.966
span	-11.966
▁Balt	-11.966
stars	-11.9661
plane	-11.9662
▁Tech	-11.9662
▁vul	-11.9662
actical	-11.9662
ival	-11.9663
▁Engl	-11.9663
spers	-11.9663
▁Madd	-11.9663
algo	-11.9663
▁delete	-11.9664
stream	-11.9664
▁Tax	-11.9665
▁experi	-11.9665
▁journ	-11.9665
phant	-11.9665
Kar	-11.9666
▁legit	-11.9667
▁perma	-11.9667
lazer	-11.9668
▁Mitch	-11.9668
▁prepare	-11.9668
▁privat	-11.9669
▁eviden	-11.9669
raud	-11.9669
rban	-11.9671
▁emphasi	-11.9671
▁Wood	-11.9674
▁distin	-11.9674
▁gard	-11.9675
posal	-11.9675
▁Howard	-11.9675
sistent	-11.9676
EN	-11.9676
43	-11.9682
ntana	-11.9683
▁Shor	-11.9684
nami	-11.9685
EW	-11.9686
ragic	-11.9688
▁legi	-11.9689
moll	-11.9689
anese	-11.9691
▁adju	-11.9691
cient	-11.9691
▁alleg	-11.9691
ield	-11.9692
cKe	-11.9693
inney	-11.9693
asich	-11.9695
eriously	-11.9695
trol	-11.9695
▁esc	-11.9698
orrow	-11.9699
▁rob	-11.9699
eige	-11.97
▁institut	-11.97
▁Beyon	-11.97
ativ	-11.9702
ravel	-11.9704
▁Exe	-11.9704
To	-11.9704
ularity	-11.9704
ceeded	-11.9705
▁Erick	-11.9706
utman	-11.9707
01	-11.9708
▁exam	-11.9708
▁defe	-11.971
rators	-11.971
ilence	-11.971
iterally	-11.971
track	-11.9711
Susan	-11.9711
Hous	-11.9712
arland	-11.9712
▁Pho	-11.9712
makes	-11.9716
fer	-11.9717
harp	-11.9717
▁quest	-11.9721
▁settle	-11.9722
organ	-11.9726
gates	-11.9728
housand	-11.9729
▁Nov	-11.9731
▁mainst	-11.9731
freed	-11.9732
▁Benj	-11.9733
▁bait	-11.9734
Da	-11.9734
beck	-11.9735
Pok	-11.9736
▁hang	-11.9737
dual	-11.9737
tempora	-11.9738
▁ethn	-11.9744
ansas	-11.9745
art	-11.9748
unic	-11.9749
ffort	-11.9749
RE	-11.9751
▁Sum	-11.9751
▁humanit	-11.9757
vow	-11.9758
ptic	-11.9759
guide	-11.9762
▁Melani	-11.9766
▁fau	-11.9768
OL	-11.977
ario	-11.9772
▁Rebe	-11.9774
quired	-11.9775
ext	-11.9777
atric	-11.9778
YI	-11.9779
OC	-11.978
▁invit	-11.9781
▁ski	-11.9781
limi	-11.9785
▁anima	-11.9785
transl	-11.9785
▁beaut	-11.9787
tran	-11.9787
▁Kur	-11.979
imul	-11.9791
▁dance	-11.9796
Boo	-11.9802
articula	-11.9802
ector	-11.9804
igan	-11.9806
nzi	-11.9807
Lil	-11.9808
mith	-11.9813
enberg	-11.9813
amps	-11.9817
repared	-11.9819
ylan	-11.9821
▁sma	-11.9821
▁Mic	-11.9822
west	-11.9826
▁audi	-11.9828
▁feat	-11.9828
elieve	-11.9829
vu	-11.9829
▁Kel	-11.983
▁Part	-11.9838
illion	-11.9839
anie	-11.9839
pair	-11.9841
TE	-11.9842
cra	-11.9842
rez	-11.9845
ential	-11.9848
ruen	-11.9851
randon	-11.9851
▁horrifi	-11.9851
▁except	-11.9852
mill	-11.9853
BART	-11.9853
▁pow	-11.9855
ault	-11.9855
pu	-11.9857
▁commo	-11.9857
uters	-11.9858
hire	-11.9863
idence	-11.9864
▁gov	-11.9868
vity	-11.9871
olate	-11.9872
rderer	-11.9875
rows	-11.9884
hoo	-11.9884
ued	-11.9887
uation	-11.9888
▁fli	-11.9889
UG	-11.9891
ummer	-11.9892
▁DO	-11.9899
leaning	-11.9901
umer	-11.9904
▁cent	-11.9904
▁yea	-11.9905
course	-11.9905
drick	-11.9905
nym	-11.9906
Hol	-11.9912
Bette	-11.9914
▁strat	-11.9916
▁desperat	-11.9917
olence	-11.9918
chum	-11.9922
died	-11.9932
tage	-11.9932
rican	-11.9933
▁dam	-11.9934
rroga	-11.9936
alley	-11.9938
▁kid	-11.9938
mont	-11.9941
TA	-11.995
apt	-11.9953
play	-11.9954
utine	-11.9955
IC	-11.9957
gage	-11.9961
IA	-11.9962
urk	-11.9967
▁sq	-11.9968
▁unfor	-11.9974
▁Mass	-11.9974
requi	-11.9981
alone	-11.9982
▁corn	-11.9983
wed	-11.9984
oints	-11.9986
▁bless	-11.9989
Tod	-11.9991
Denvir	-11.9993
▁Tues	-12
▁Chu	-12.0005
▁Fig	-12.0015
▁priva	-12.0026
▁adver	-12.0031
▁Gold	-12.0033
▁bath	-12.0035
mart	-12.0036
Eve	-12.0037
▁Denv	-12.004
gam	-12.0044
lls	-12.0047
itude	-12.0047
olation	-12.0049
arty	-12.0053
▁irre	-12.0059
▁Fall	-12.006
kins	-12.0064
nners	-12.0065
▁equa	-12.0066
isappointed	-12.0067
ayne	-12.0071
▁truck	-12.0071
emon	-12.0073
tious	-12.0084
assert	-12.0085
fold	-12.0085
ombine	-12.0086
▁obt	-12.0087
▁promis	-12.0089
omis	-12.0101
ETC	-12.0107
▁Bey	-12.0109
ensive	-12.0111
kc	-12.0111
rning	-12.0118
ories	-12.0123
gged	-12.0129
▁prof	-12.0135
▁priv	-12.0136
mente	-12.0136
mph	-12.0136
embe	-12.0137
ponent	-12.014
Are	-12.0147
▁che	-12.0152
bies	-12.0168
rowl	-12.0168
trate	-12.0169
▁unde	-12.0175
▁dispar	-12.0181
Ga	-12.0181
▁Time	-12.0182
nglish	-12.0184
peak	-12.019
dishon	-12.019
elines	-12.0191
cted	-12.0191
▁soli	-12.0193
mani	-12.0195
pr	-12.0206
▁hyp	-12.0215
isco	-12.0216
▁inform	-12.0218
▁cal	-12.0219
▁discre	-12.0229
nes	-12.0235
nded	-12.0237
riminal	-12.0239
▁carr	-12.0247
iance	-12.0252
ert	-12.0252
▁fil	-12.0262
eased	-12.0264
▁rid	-12.0272
OIN	-12.0275
obby	-12.0289
▁Politic	-12.0302
▁rating	-12.0303
rrupt	-12.0303
einforc	-12.0307
gnific	-12.0315
cies	-12.032
pa	-12.0351
▁q	-12.0361
▁indi	-12.0361
▁Kh	-12.0363
▁caucus	-12.0368
▁Ram	-12.0373
heav	-12.0379
tub	-12.038
▁eve	-12.0384
▁dad	-12.0389
rel	-12.0403
mory	-12.0416
rpet	-12.0432
inted	-12.0446
▁Ash	-12.0459
lives	-12.046
understanding	-12.0476
evan	-12.0478
ander	-12.0478
▁wor	-12.0479
sq	-12.048
Ne	-12.0491
nor	-12.0493
▁sl	-12.0495
▁rig	-12.0498
▁AD	-12.0499
Ron	-12.05
▁anti	-12.0504
merleau	-12.0506
doing	-12.0509
▁Too	-12.0511
nig	-12.0524
self	-12.0527
▁Sha	-12.054
(’	-12.0553
▁Stir	-12.0555
pdate	-12.0558
points	-12.0561
▁Freed	-12.0565
▁edu	-12.0569
▁prem	-12.0569
▁ske	-12.0572
▁Lou	-12.0576
▁vid	-12.0579
tdown	-12.0581
▁Mary	-12.0582
ou	-12.0584
Ass	-12.0588
rud	-12.0591
orial	-12.0593
essa	-12.0596
itted	-12.0603
▁influen	-12.0605
tem	-12.0606
Non	-12.0611
cting	-12.0613
▁minist	-12.0618
tick	-12.0636
▁Snow	-12.0639
icie	-12.0642
▁competiti	-12.0644
rope	-12.0645
Fun	-12.0649
yon	-12.065
portion	-12.0654
▁contin	-12.066
▁GO	-12.066
mean	-12.0669
rl	-12.067
mj	-12.0671
eved	-12.0671
ems	-12.0679
▁hur	-12.0693
▁sec	-12.0695
rising	-12.0696
gusto	-12.0697
laring	-12.0711
char	-12.0712
▁deb	-12.0713
dless	-12.0723
rges	-12.0732
▁MS	-12.0738
▁deni	-12.0741
▁clarifie	-12.0744
ntries	-12.075
special	-12.075
seven	-12.0751
phen	-12.0756
thetic	-12.0757
▁revi	-12.0759
zard	-12.0767
▁pie	-12.0776
otte	-12.0777
▁insp	-12.0778
gel	-12.0784
Rei	-12.0785
▁qua	-12.0788
▁Mille	-12.08
▁meta	-12.0816
▁Pre	-12.0819
erce	-12.0824
cation	-12.0843
▁Davi	-12.0845
▁50	-12.0848
mise	-12.0852
▁AB	-12.0853
▁nu	-12.0859
▁Yea	-12.086
▁hat	-12.0866
dow	-12.0881
snow	-12.0882
oyle	-12.0885
ex	-12.0889
dMe	-12.0895
rify	-12.0896
haus	-12.09
questionabl	-12.0934
onda	-12.0944
▁Hit	-12.0944
rely	-12.096
edia	-12.0971
resent	-12.099
rays	-12.1005
hanged	-12.1006
sting	-12.1009
lut	-12.1019
▁Kl	-12.102
works	-12.102
lope	-12.102
▁Merc	-12.1022
▁por	-12.1038
rien	-12.1043
erne	-12.1047
4:	-12.1058
▁Miche	-12.1062
lit	-12.1069
vention	-12.1087
▁Spa	-12.1089
▁Rec	-12.1095
mann	-12.11
llows	-12.1101
▁Roth	-12.1102
▁punishe	-12.1111
▁suspe	-12.1112
avid	-12.1121
swing	-12.1122
▁embar	-12.1124
cruz	-12.1144
▁ult	-12.1155
rn	-12.117
ched	-12.117
nesses	-12.1183
Ch	-12.1198
▁Scal	-12.1208
▁testi	-12.1209
▁ear	-12.1224
ains	-12.1229
▁mess	-12.1236
cker	-12.1236
ibi	-12.1247
▁observe	-12.1255
▁scre	-12.1262
okes	-12.1281
orted	-12.1286
rch	-12.1287
▁abo	-12.1291
▁operati	-12.1309
shamed	-12.1311
kar	-12.1313
pace	-12.1321
wind	-12.1326
▁conse	-12.1327
enc	-12.133
▁Dec	-12.134
partment	-12.1351
tri	-12.1357
▁ext	-12.1358
trend	-12.1388
lot	-12.1389
rned	-12.1392
vo	-12.14
imp	-12.1405
lways	-12.1417
▁Nat	-12.143
ec	-12.1431
▁resta	-12.1439
aron	-12.1442
icted	-12.1451
urd	-12.1456
bled	-12.1456
dish	-12.1456
xima	-12.1461
type	-12.1468
cts	-12.1471
▁Harr	-12.1488
iden	-12.1495
▁vib	-12.1497
orting	-12.1499
lic	-12.1515
▁edit	-12.1522
llio	-12.1524
▁die	-12.1529
kpo	-12.1537
areed	-12.1539
qua	-12.1541
▁gam	-12.1544
nternet	-12.1598
cor	-12.16
dependent	-12.1607
onference	-12.1617
▁En	-12.1631
str	-12.1639
oving	-12.1645
▁pill	-12.1645
roth	-12.1654
▁eye	-12.1659
orrifying	-12.1682
ither	-12.1687
ona	-12.1689
orj	-12.1704
harles	-12.1705
ins	-12.1713
▁lega	-12.1719
▁supers	-12.173
▁horr	-12.1732
fre	-12.1747
▁celebrat	-12.1759
hooting	-12.1771
▁Phill	-12.1778
▁profess	-12.1778
elated	-12.1784
venti	-12.1792
▁Ken	-12.1802
▁Cons	-12.1808
▁ag	-12.1817
▁Moi	-12.1824
vine	-12.1825
nish	-12.1835
eks	-12.1838
▁gues	-12.1841
ington	-12.1843
cksta	-12.1869
▁Coo	-12.1916
▁Ti	-12.1944
ques	-12.1959
ining	-12.1972
ee	-12.1975
tcom	-12.1977
▁mon	-12.1984
Kh	-12.2007
etime	-12.2014
▁Pl	-12.2043
offs	-12.2048
asan	-12.2055
▁ple	-12.2056
lessly	-12.2062
itche	-12.2064
eez	-12.2068
▁dist	-12.2073
dles	-12.2074
▁sno	-12.2074
▁Sto	-12.2082
36	-12.2107
cky	-12.211
pecial	-12.2119
bra	-12.2121
gus	-12.2129
bus	-12.2132
equi	-12.2145
lie	-12.2165
icit	-12.2175
nks	-12.2177
sley	-12.2183
roject	-12.2213
dca	-12.2221
destroye	-12.2224
ford	-12.2242
▁Michel	-12.2253
fat	-12.2253
willing	-12.2272
shing	-12.2274
▁thin	-12.2275
mad	-12.2295
▁Du	-12.2317
wh	-12.2323
ssions	-12.2341
ssa	-12.2345
tify	-12.2369
▁stag	-12.2378
▁fin	-12.2395
pert	-12.2411
annity	-12.2414
ometimes	-12.2447
ines	-12.2457
ately	-12.2479
▁cu	-12.2489
onfir	-12.2493
olden	-12.2494
ndeed	-12.251
edu	-12.2547
ament	-12.2566
show	-12.2573
▁sour	-12.2614
orough	-12.2622
zes	-12.2632
railing	-12.2648
kick	-12.2672
▁Wit	-12.2673
ease	-12.2674
▁pet	-12.2681
ates	-12.2683
Red	-12.2695
res	-12.2696
Mat	-12.2704
▁opposit	-12.2709
onsider	-12.2738
▁offe	-12.2749
arbor	-12.277
zing	-12.2771
▁Comm	-12.2778
ckl	-12.278
ase	-12.2807
ighting	-12.2827
hrew	-12.2856
roadcast	-12.2864
▁extremis	-12.2867
ighted	-12.2935
▁Circ	-12.2942
rial	-12.2942
lang	-12.2954
▁sw	-12.2966
toppe	-12.2979
aster	-12.3012
▁wea	-12.3015
rogressives	-12.3021
los	-12.303
ture	-12.3034
lity	-12.305
▁Aw	-12.3062
IP	-12.3071
owed	-12.3089
▁nod	-12.3098
gas	-12.3115
inte	-12.3125
ett	-12.3129
▁amb	-12.3151
IS	-12.3169
▁rat	-12.3206
ips	-12.3227
fault	-12.3247
Then	-12.3287
▁nat	-12.3291
tte	-12.3302
onat	-12.3317
ya	-12.3362
sion	-12.3365
ys	-12.3368
opper	-12.3401
ater	-12.3437
izes	-12.345
nals	-12.3491
left	-12.3547
sha	-12.3551
dave	-12.3552
plain	-12.3556
▁outc	-12.3556
easing	-12.3595
▁defen	-12.3595
▁basi	-12.3603
eated	-12.3681
eme	-12.3686
nything	-12.3699
ians	-12.3717
▁meth	-12.3744
gg	-12.376
cum	-12.3777
▁Kap	-12.3781
tant	-12.3789
erfu	-12.3794
▁hum	-12.3804
ita	-12.3806
▁Deb	-12.3847
orm	-12.385
ances	-12.3869
▁exp	-12.3875
▁endur	-12.3875
erate	-12.389
Word	-12.3895
gt	-12.3911
isten	-12.3931
ackstage	-12.3966
action	-12.3966
▁Jame	-12.4023
ssed	-12.4063
cide	-12.4071
▁Fara	-12.4077
nest	-12.4081
▁dr	-12.4102
ditionally	-12.4154
▁ideologi	-12.4176
▁te	-12.42
▁tho	-12.4209
Spe	-12.4228
reas	-12.4231
ooke	-12.426
Ted	-12.4261
▁burn	-12.4274
bric	-12.4319
ause	-12.433
cles	-12.4352
▁Dru	-12.4362
▁Kas	-12.4366
▁Ang	-12.4366
nim	-12.4376
aging	-12.44
ctual	-12.4462
poke	-12.447
ght	-12.4476
ewer	-12.4488
▁Islami	-12.4501
ue	-12.4505
ffe	-12.4518
izz	-12.4521
power	-12.4554
aura	-12.4568
inating	-12.457
ren	-12.457
een	-12.4587
▁pai	-12.4604
▁patte	-12.4621
▁sensi	-12.4623
ngly	-12.4627
oderators	-12.4638
eferences	-12.4657
▁nic	-12.4731
says	-12.4746
▁net	-12.4759
▁weake	-12.4773
▁twi	-12.4804
lan	-12.4808
Sa	-12.4809
Fe	-12.4831
mod	-12.4847
pel	-12.4858
▁Whe	-12.4939
▁dog	-12.4942
▁cas	-12.4945
▁Sk	-12.4946
raw	-12.4946
itness	-12.4954
oeNBC	-12.5002
native	-12.5089
▁fre	-12.5106
ashing	-12.512
▁mou	-12.5145
essel	-12.5214
▁wis	-12.5216
▁inch	-12.5225
elf	-12.5244
wal	-12.5259
eading	-12.5259
14	-12.5261
mos	-12.5266
mb	-12.528
erform	-12.5285
tw	-12.5323
verturn	-12.5327
▁Bet	-12.5328
illed	-12.5332
emo	-12.5345
ull	-12.5349
▁fund	-12.5408
▁appli	-12.5453
emy	-12.5455
▁grav	-12.5466
spons	-12.5479
▁fly	-12.5492
▁ce	-12.5499
trateg	-12.552
▁regu	-12.5536
high	-12.56
▁Fort	-12.5604
MAs	-12.5613
respondent	-12.5635
eDown	-12.5642
▁Gu	-12.5645
ye	-12.5651
▁Ab	-12.568
rant	-12.5683
▁sin	-12.5705
ria	-12.5742
▁sum	-12.5753
▁Ple	-12.5782
hat	-12.5859
▁celebr	-12.588
rty	-12.5892
zed	-12.5926
lax	-12.5927
alk	-12.5969
owers	-12.6001
▁colle	-12.6002
erity	-12.6062
lize	-12.608
▁devo	-12.6118
iving	-12.6137
▁loo	-12.6211
inning	-12.6226
▁slighte	-12.6249
equ	-12.6253
▁Sta	-12.6267
quit	-12.6281
rea	-12.6286
▁Garl	-12.6306
yes	-12.6332
Ty	-12.6333
alv	-12.6334
▁bet	-12.6344
ph	-12.636
▁ro	-12.6367
umper	-12.6376
13	-12.6401
rag	-12.6422
lla	-12.6422
▁plat	-12.6437
▁disse	-12.648
▁Jer	-12.6503
▁sui	-12.6515
Sp	-12.6529
▁Cond	-12.6577
cho	-12.6604
ito	-12.6613
Ru	-12.6655
▁Fore	-12.6768
ID	-12.6769
eat	-12.6804
ights	-12.6828
▁Sand	-12.6869
sts	-12.6878
leged	-12.6942
tes	-12.6949
alo	-12.6974
▁McGi	-12.7006
bo	-12.7009
fro	-12.7009
sters	-12.7082
ucker	-12.7145
▁inf	-12.7149
ipto	-12.722
wned	-12.7228
sms	-12.7228
gling	-12.7287
▁spre	-12.7331
kid	-12.7333
ste	-12.736
anders	-12.7388
▁les	-12.7409
obe	-12.7505
arties	-12.7535
▁rais	-12.7647
nsens	-12.7663
nally	-12.7673
▁Fin	-12.7714
▁att	-12.7715
bes	-12.7796
▁bal	-12.7808
▁pushe	-12.7821
▁tempe	-12.7833
St	-12.7851
▁dependen	-12.7986
toxi	-12.8016
▁rapi	-12.8019
▁unea	-12.8089
onne	-12.8104
lions	-12.8138
jw	-12.8164
anc	-12.8182
mmu	-12.8322
▁inte	-12.8339
▁inv	-12.8354
▁trib	-12.8368
▁Cou	-12.8379
tility	-12.8406
fi	-12.8409
tions	-12.8472
ddys	-12.8485
arly	-12.8498
eepi	-12.8501
sing	-12.8508
iv	-12.8522
▁fas	-12.8545
olitician	-12.8583
▁Dav	-12.8653
tle	-12.872
hole	-12.8726
mother	-12.8746
ili	-12.8774
▁Ob	-12.8784
quee	-12.8812
▁passe	-12.9072
▁Pr	-12.9157
ME	-12.9158
ells	-12.9177
gazine	-12.92
cks	-12.9211
yMuslim	-12.9221
ong	-12.9281
session	-12.9368
▁Av	-12.9408
▁Cos	-12.9418
▁studi	-12.9503
ggre	-12.9505
▁Reli	-12.958
▁ze	-12.964
imi	-12.9731
VE	-12.9745
dol	-12.9755
mp	-12.9765
ashi	-12.9797
▁condo	-12.9804
eeze	-12.9807
ckle	-12.9836
inds	-12.9842
nking	-12.9908
WO	-12.9909
his	-13.0038
tie	-13.0042
ere	-13.0045
▁Ill	-13.0063
▁wash	-13.0069
tain	-13.0073
ooks	-13.0114
sey	-13.0175
▁hono	-13.0211
ras	-13.0215
▁executi	-13.0308
▁lov	-13.0337
▁heat	-13.0375
llins	-13.0408
▁approximati	-13.0511
▁mani	-13.0581
▁int	-13.0606
ratch	-13.0675
▁godd	-13.0681
sted	-13.0719
▁Med	-13.0746
stra	-13.0847
nqui	-13.0878
isleading	-13.0937
▁Red	-13.0944
▁alienati	-13.0962
▁cau	-13.0973
hi	-13.0992
▁brea	-13.1014
gra	-13.1155
ente	-13.1259
spira	-13.1324
Av	-13.1346
2016,	-13.1386
▁pers	-13.1405
rious	-13.1427
onsens	-13.1473
▁Sc	-13.1575
▁clarifi	-13.1656
OT	-13.1658
hor	-13.1663
ondered	-13.1692
search	-13.1697
kla	-13.1701
ugg	-13.173
ds	-13.1755
▁sta	-13.1771
▁ou	-13.1898
▁documentar	-13.1903
▁reve	-13.1958
ai	-13.1964
▁Hea	-13.199
PR	-13.1994
▁bus	-13.2
rgency	-13.2037
bin	-13.2058
▁Flo	-13.2117
▁Ko	-13.2176
mans	-13.2199
▁representati	-13.2205
▁$	-13.2234
laze	-13.2238
▁airti	-13.2323
▁rul	-13.2359
▁ethnicit	-13.2392
▁beg	-13.2491
tab	-13.2498
tioned	-13.2662
pear	-13.2683
▁Almo	-13.2704
eli	-13.2745
igel	-13.2794
▁Ir	-13.2804
ls	-13.297
lk	-13.2995
▁WI	-13.3007
▁fam	-13.3037
handed	-13.3138
rhood	-13.3187
laz	-13.3195
rth	-13.3301
